#version: 0.2
Ġ t
h e
Ġ a
Ġ s
n d
Ġ w
Ġt he
e d
Ġ b
Ġt o
Ġa nd
Ġ h
Ġ f
i n
Ġ T
Ġw a
r e
i t
o u
Ġ l
Ġ d
Ġ c
Ġ p
a y
Ġ m
e r
Ġwa s
o m
ĠT he
Ġ he
i s
Ġ n
a r
i m
o n
Ġs a
i d
l l
Ġh a
Ġ g
a t
Ġ S
in g
o t
e n
a n
l e
o r
e nd
i r
o f
a m
e t
Ġ H
Ġ it
Ġt h
i g
ĠThe y
Ġ in
i l
Ġp l
ĠH e
Ġ "
o w
v er
r i
u t
Ġb e
Ġ u
Ġpl ay
Ġsa id
it h
Ġd ay
p p
Ġw ith
O n
Ġ y
o o
k ed
Ġ r
e x
Ġhe r
c e
Ġ I
ĠS he
l d
ĠT im
Ġh is
Ġs t
k e
Ġb ig
n t
c k
Ġy ou
ver y
s t
v e
Ġ on
u n
Ġha pp
ri end
Ġf riend
a ll
il y
ex t
Ġ L
Ġthe y
of t
Ġw e
Ġha d
Ġn ot
Ġl i
Ġu p
he r
Ġwa nt
Ġ of
a d
it t
< |
| >
end oft
endoft ext
s e
Ġ B
Ġd o
Ġ e
Ġhapp y
Ġ M
en t
Ġ very
e s
Ġth at
Ġsa w
On e
' s
ou ld
Ġm om
Ġf or
Ġs h
itt le
Ġl ittle
Ġs he
im e
c h
Ġn am
. "
Ġt ime
Ġs o
Ġ k
ou nd
Ġthe re
Ġnam ed
Ġs m
Ġb o
ĠL ily
Ġwe re
Ġn e
Ġwant ed
ou t
Ġb ut
Ġfriend s
T he
v ed
h t
! "
ĠT om
ir d
e l
Ġb ird
a l
Ġa n
a ke
om e
Ġto o
ĠI t
u g
id e
Ġw ent
Ġw h
Ġhe l
On ce
Ġ is
u e
Ġa ll
Ġhel p
Ġl oo
Ġl o
Ġ A
Ġup on
t er
r y
o re
Ġf un
i nd
g et
i ll
Ġto y
am e
Ġa s
Ġa t
Ġ j
r a
Ġd id
get her
Ġ re
u r
Ġ o
Ġto gether
Ġs e
a ck
Ġc at
Ġt re
l y
oo d
i c
Ġdo g
t ed
Ġc ould
Ġc an
Ġthe ir
ar d
ar k
e c
Ġg ir
Ġplay ed
Ġh im
Ġgir l
w ay
Ġb all
? "
Ġr o
Ġg o
m y
Ġ out
Ġa re
he d
a in
Ġk n
Ġl e
Ġf r
' t
he n
Ġthe m
u m
a x
Ġsa d
Ġtre e
u l
Ġbo y
Ġha ve
ot her
Ġc l
Ġm an
Ġloo ked
Ġlo ved
ou g
Ġf ound
Ġs p
Ġst ar
ĠS ue
on e
h ing
Ġs c
ĠM ax
Ġb ack
ow n
Ġli ke
a re
s ide
Ġm e
Ġbe c
f ul
ig ht
on g
Ġp ark
Ġc ar
o p
Ġ One
Ġli ked
el t
Ġw ould
r ound
Ġm ake
Ġl a
Ġf a
Ġf elt
Y ou
Ġ W
Ġse e
e ll
ĠB ut
om et
ou se
Ġas ked
Ġne w
Ġn o
a g
ĠS am
ar ed
Ġstar ted
Ġc ame
i ce
ĠB en
Ġa l
Ġ other
il ed
oug ht
Ġa g
Ġs omet
Ġg ood
Ġsm all
Ġb r
s s
Ġs ay
Ġsm iled
ing s
ri ed
ad e
o b
Ġ Ċ
p ot
Ġw or
Ġa way
Ġf ind
Ġ ex
Ġp ut
i a
Ġwh at
t y
Ġsomet hing
Ġm ade
Ġth ought
Ġh ome
Ġfr om
en ed
Ġplay ing
Ġc o
Ġwa l
Ġe very
oo k
Ġm u
a ch
ĠS pot
u c
Ġr an
ar n
Ġ F
Ġ J
i le
i e
Ġh ouse
Ġag ain
Ġs ome
a ve
d d
Ġd own
Ġla ug
k ing
Ġsc ared
n y
Ġf l
Ġtoo k
u re
Ġp r
i ck
i f
Ġw ill
Ġbo x
Ġle arn
Ġ You
Ġtoy s
Ġa round
Ġth ings
e p
a b
re t
Ġm y
Ġyou r
Ġb l
u ck
ou d
Ġw hen
Ġs un
Ġli ved
is h
Ġf e
Ġthe n
Ġs w
a s
Ġc h
, "
pp ed
Ġa b
u s
ĠM ia
an k
T im
Ġg et
um p
T h
ot h
Ġl ot
a p
uc y
is t
Ġt ried
Ġkn ow
Ġsay s
Ġg ot
it ed
u st
Ġkn e
Ġwh o
nd er
Ġman y
Ġab out
Ġin t
L ily
Ġan y
Ġp ret
Ġr ed
Ġd ec
Ġ D
is e
i ve
Ġkne w
ou s
a ce
Ġp ic
Ġm ore
all y
Ġ v
Ġh ug
q u
Ġc are
a u
Ġp o
Ġbe st
Ġbec ame
Ġwa ter
f ter
Ġlearn ed
ĠL ucy
Ġex c
au se
way s
Ġout side
Ġo p
ur p
â Ģ
Ġal ways
Ġg re
Ġlaug hed
Ġsh ow
Ġloo k
ĠB ob
it e
Ġdec id
Ġro om
Ġu n
Ġbec ause
ĠS o
Ġh o
f e
Ġdecid ed
Ġe at
Ġb oth
Ġint o
ĠA nd
an t
Ġj ump
ĠM om
er s
u dd
Ġd ad
Ġp e
Ġon e
Ġ ke
The y
n n
Ġexc ited
Ġfe el
Ġth is
Ġn ice
Ġl ong
Ġfa st
T om
Y es
Ġr un
Ġ E
Ġs k
Ġt r
Ġto ld
urp r
Ġa m
Ġin side
ou r
Ġs urpr
u ll
in k
Ġm o
in y
Ġpret ty
Ġs or
Ġt ake
W h
Ġg ra
nn a
le w
Ġs l
o g
Ġe ach
Ġg ave
Ġmu ch
Ġst r
Ġro ck
g ed
Ġh ow
im al
Ġan imal
Ġ or
ar a
Ġne ed
B ut
et ter
Ġth an
Ġto w
Ġu nder
v en
Ġo ld
Ġ C
Ġsor ry
g e
es s
is ed
r o
ur t
a nd
Ġwal ked
Ġf ish
Ġcl o
Ġha nd
Ġc le
Ġbe ar
a st
a se
ĠH is
Ġk ind
ĠW e
Ġj ust
ur n
he re
Ġdid n
p l
Ġt e
Ġhapp ened
Ġfl ow
Ġwa t
Ġf ood
Ġh ig
Ġt ry
Ġ ide
Ġsk y
in e
Ġs n
Ġne ar
Ġl ist
Ġanimal s
r om
v ing
Ġf i
c hed
Ġide a
f f
Ġb etter
Ġu s
ĠA my
Ġhe ard
Ġb ug
Ġit s
Ġl et
Ġt w
g ry
Ġ en
p ec
Ġsh are
ab le
at e
Ġ if
Th ank
Ġst or
ĠT h
M om
Ġcare ful
Ġf lew
i al
Ġf ly
m ore
Ġany more
Ġsp ec
l f
Ġspec ial
Ġlot s
Ġne ver
Ġc om
Ġd an
Ġb y
i on
Ġw ind
Ġd on
Ġf o
Ġt al
Ġlo ve
re am
Ġb u
Ġg r
Ġ end
Ġcle an
ĠThe n
r m
Ġe ven
Ġsh iny
or t
Ġf ore
udd en
b er
Ġc ake
Ġh ard
Ġo ver
op le
Ġm ag
a k
Ġco l
Ġt urn
udden ly
Ġb ook
ĠA nna
Ġa fter
Ġsa fe
im b
Ġb ad
Ġf am
L et
ad y
Ġcl imb
ĠE very
Ġdo or
Ġh urt
Ġhig h
Ġsurpr ised
Ġc ome
Ġg round
Ġc u
Ġpr oud
pec ted
Ġpic ked
b b
Ġpe ople
Ġg l
ard en
Ġg arden
Ġop ened
Ġl oud
Ġc he
ex pected
Ġun expected
il d
A s
Ġwa y
Ġ im
Ġg ive
' m
Ġbl ue
Ġe ver
Ġhug ged
Ġst ill
Ġthan ked
Ġcol or
a il
ĠF rom
ĠH er
Ġf ar
Ġc all
i p
N o
ĠW hen
i z
Ġof f
um my
Ġ K
ag e
ĠS ara
u ff
oug h
Ġmag ic
Ġjump ed
Ġk id
Ġfam ily
oo l
Ġsh ould
Ġp ar
Ġsm ile
Ġwal k
k ay
le s
Ġ qu
ĠI n
he s
Ġpl ace
Ġn ow
c t
Ġst ay
t ure
e m
Ġgre at
Ġstr ong
an e
Ġu nt
Ġfore st
itt y
a ut
Ġ P
Ġst o
Ġst ick
d y
Ġb ra
Ġunt il
Ġbr o
Ġbe aut
n ing
Ġs qu
Ġn ext
o on
le ase
un ny
Ġhapp ily
Ġfr og
a king
Ġkid s
Ġbo at
i es
Ġa pp
t h
o y
Ġclo s
i ful
Ġbeaut iful
Ġlist en
Ġwh ile
Ġstor y
Ġd ra
Ġshow ed
Ġpic ture
Ġhelp ed
b e
Ġr ain
re l
Ġtow n
Ġim p
Ġbe ing
p t
Ġt ra
ar y
re ss
Ġm or
Ġevery one
I t
re e
Ġha t
Ġa d
uff y
Ġcall ed
Ġm et
Ġsto pped
Ġw o
N ow
C an
Ġg ame
Ġre m
H e
Ġs oft
Ġtr uck
b y
Ġy ummy
Ġan gry
Ġop en
Ġc ry
W hen
Ġb ed
ĠS ally
Ġke ep
v ent
ĠL et
g er
ĠK itty
Ġm ouse
Ġwat ch
Ġwa rm
Ġat e
Ġbra ve
Ġcould n
ĠW h
Ġlo st
Ġd e
s o
Ġ R
f ore
Ġf ell
dd ed
Ġal so
is hed
Ġdo ll
Ġle ave
Ġfa ce
Ġno ise
b le
ow l
Wh at
Ġtw o
Ġw here
b it
Ġgre en
ir st
g an
Ġflow ers
l uffy
ab bit
is s
a z
se lf
o ck
Ġso on
ir rel
ill y
Ġsl ide
Ġr abbit
Ġp us
Ġhe ar
Ġhand s
Ġbe fore
Ġho le
Ġsqu irrel
Ġsa t
Ġex pl
Ġp a
ir ed
m a
Ġke pt
Ġno dded
The n
e ar
H i
âĢ Ŀ
âĢ ľ
Th at
Ġp ain
Ġu se
L ook
Ġst ore
ĠF luffy
Ġbird s
Ġc ook
Ġgo ing
Ġha ving
d ay
Ġe y
Ġcat ch
Ġb unny
Ġs ing
Ġfun ny
Ġb re
le ep
Ġfi x
ay be
Ġf in
an ge
a ug
B en
aug ht
Ġw r
Ġth ink
Ġc ra
u it
ĠC an
Ġloo king
Ġy ell
u ch
Ġwor k
Ġt ired
t hing
Ġ our
Ġus ed
Ġ Now
W e
Ġk it
Ġme an
Ġha s
Ġp ull
a ir
t ing
Ġsun ny
Ġ G
Ġth r
Ġj o
Ġwa it
Ġb us
Ġs ound
Ġother s
Ġpo nd
Ġas k
Ġbe h
n g
l ed
c hen
Ġkit chen
Ġtal k
Ġfl o
j oy
ĠJ o
Ġd r
Ġhe ad
Ġey es
em ber
re w
Ġf irst
Ġfa v
Ġp ie
Ġmom my
Ġre al
Ġd if
Ġc on
Ġt ri
Ġm ess
or n
ell o
H ello
Ġflow er
Ġr ight
i ous
Ġv o
Ġcu ri
at h
ĠJ ack
Ġd uck
e et
Ġsa nd
Ġen joy
im es
Ġco ld
Ġ âĢľ
Ġ z
f t
Ġimp ort
Ġpar ty
Ġmor al
Ġad vent
Ġsh ared
z y
ĠD o
Ġrem ember
Ġr ace
Ġbr ight
Ġh ill
Ġcuri ous
Ġo kay
Ġm on
a c
A t
re ed
Ġm aking
Ġh op
ll ow
Ġy ard
Ġwor ked
ou nt
Ġt all
Ġimport ant
Ġh id
Ġs leep
Ġfav or
Ġd ir
Ġcl a
Ġ own
Ġfavor ite
Ġhe re
Ġth ing
W ow
Ġbe gan
Ġb ag
q ue
Ġd is
Ġd ress
Ġre st
Ġdra w
D on
h n
ĠF in
Ġt ell
ll y
Ġ ri
Ġwat ched
st er
Ġn ight
ap er
Ġag reed
Ġfo llow
Ġsurpr ise
Ġbe l
ec t
Ġ ice
Ġmo ve
Ġbl ock
Ġp ick
Ġgra ss
Ġc ut
c o
Ġh ot
ĠTh is
Ġtre es
Ġd ark
i ed
Ġst op
Ġh un
Ġsh o
Ġbeh ind
Ġwal king
Ġr u
Ġt able
Ġflo or
Ġwor ry
Ġto p
A fter
Ġvo ice
Ġfar m
ĠD ad
Ġli on
Ġfor g
M ax
Ġs ong
Ġt ail
Ġp lease
Ġcolor s
Ġl ady
Ġre ad
Ġsh out
Ġsw eet
fe re
is y
Ġdif fere
Ġclos er
Ġleave s
ar ing
Ġdo es
Ġturn ed
âĢ Ļ
Ġneed ed
ĠM r
ig n
Ġadvent ure
Ġw ood
Ġfeel ing
Ġt ast
Ġd el
ĠS uddenly
Ġcar s
Ġp aper
er ed
Ġsw ing
Wh y
Ġpie ce
Ġc ried
S ue
Ġdiffere nt
A nna
Ġf ull
Ġfi re
Ġpr in
Ġlaug h
Ġro ll
b o
Ġbut ter
Ġhun gry
Ġyell ow
Ġfriend ly
Ġw et
i ke
ĠA s
Ġc r
k en
Ġha ir
o om
Ġto uch
ĠTh at
Ġp er
i ent
Ġbro ken
Ġfr uit
Ġclimb ed
at er
c ked
S am
Ġdan ce
Ġpr om
a ched
by e
Ġl ight
Ġrun ning
pp y
Ġan other
w here
Ġre ady
ĠBob o
Ġpret end
Ġlist ened
Ġpl an
Ġdan c
ĠJ ane
Ġsw im
bb ed
Ġon ly
Ġg one
S he
S uddenly
Ġsm ell
Ġwo nder
s h
Ġclo se
Ġblock s
Ġam az
nd ma
a v
Ġho ld
Ġre pl
Ġa nt
in s
S ara
Ġgl ad
Ġhelp ing
S o
Ġse es
ĠA ll
Ġwa ll
one y
Ġp u
ab y
Ġsl ow
Ġc ool
ĠTim my
Ġgood bye
Ġre ached
Ġbe en
Ġd ri
ic ed
Ġpus hed
r ed
il a
Ġwind ow
Ġa c
Ġa r
Ġf ight
Ġexpl ore
M ia
Ġl ess
Ġh ide
Ġ O
Ġmom ent
a f
at her
Ġst uck
ĠEvery one
Ġtry ing
Ġst e
Ġsn ow
Ġwa g
Ġm ight
Ġnam e
Ġs it
Ġapp le
ic y
Ġmu st
Ġc ream
Ġfa ir
Ġb it
Ġch ild
iz ed
Ġper f
Ġqu ick
Ġd one
Ġcom ing
Ġth ank
Ġunder st
Ġhe ld
ke y
Ġbu y
Ġdir ty
Ġf all
Ġsc ary
Ġb ar
a isy
Ġb aby
Ġbutter f
Ġlook s
Ġw ished
Ġd in
Ġd ream
Ġball oon
Ġbu ild
I n
Ġdo ing
Ġ owl
ot t
am es
Ġw ise
Ġtra in
Ġa ir
Ġrepl ied
Ġbook s
Ġre ach
Ġd ro
Ġle ft
Ġt iny
Ġbr an
as h
Ġcla pped
Ġcl oud
Ġm ar
Ġshout ed
Ġthr ough
Ġc ount
and y
el y
Ġw in
Ġpull ed
ie ld
Ġwh y
Ġth ree
av y
Ġs ure
' re
Ġch air
Ġgr ow
Ġbr other
Ġwood s
Ġtre at
Ġp ink
am p
Ġne st
Ġsp l
Ġsomet imes
Ġcu p
Ġse en
Ġm at
i x
Ġjo in
out h
O kay
Ġla nd
Ġf ill
Ġc re
Ġj ob
p e
ar t
Ġcolor ful
Ġpain t
udd y
Ġm outh
Ġgra bbed
as k
ou p
Ġstay ed
Ġwa ved
Ġcon t
ĠA fter
ĠMom my
Th is
ow er
Ġpl ant
ĠThe re
Ġb lew
Ġwa ited
d s
Ġbig ger
Ġlike s
ro om
p h
O h
Ġless on
Ġc ast
Ġenjoy ed
Ġremember ed
Ġquick ly
Ġnot iced
Ġs et
Ġcl ot
Ġbutterf ly
Ġclot hes
d er
c le
Ġpicture s
Ġp en
Ġbro ke
Ġany thing
J o
Ġg ames
ri es
Ġal one
Ġp ot
Ġb ott
Ġg if
Ġho pped
Ġg ent
d e
Ġt ight
uck y
at ion
Ġse a
Ġhe avy
Ġwor ld
Ġp at
Ġmu s
Ġsp ot
t on
Ġm iss
Ġy ear
Ġturn s
as ure
l c
m an
Ġm ix
H er
Ġhim self
Ġtow er
Ġth rew
r ow
Ġb ike
Ġa rm
Ġevery where
Ġwh ite
ct or
L ucy
Ġw on
ĠB uddy
or m
Ġsw am
le ss
o lly
Ġcom p
Ġj u
ap e
B ob
Ġj e
Ġfollow ed
Ġmake s
Ġbl ack
ĠD aisy
Ġke y
ĠWh at
Ġ ve
Ġwr ong
Ġdel ic
th y
Ġpo l
Ġde ep
Ġbre ak
Ġforg ot
ou n
S pot
Ġcast le
are nt
Ġr ide
n er
i et
u ed
Ġmus ic
Ġr ound
" .
e e
D o
Ġqu iet
ce ss
Ġwe ar
Ġp arent
Ġn ap
Ġmon ster
Ġh it
is ter
Ġe m
Ġbe e
Ġv is
Ġunderst and
Ġdanc ed
ve s
Ġst u
Ġd ry
r ot
Ġwant s
ull y
an g
an ce
z z
Ġb or
o s
Ġtal ked
ĠJo hn
t s
ro ss
F rom
re n
Ġcook ies
f ully
Ġsm art
Ġs ide
Ġle af
Ġre s
Ġm um
Ġbr ought
Ġrock s
Ġ que
Ġle g
Ġb owl
Ġpo in
Ġhapp en
Ġfast er
en ce
Ġre l
ĠIn side
Ġs ister
Ġsh aring
Ġse c
Ġbran ch
Ġcont in
Ġre ally
Ġwor ried
Ġbut ton
c y
Ġsome one
Ġwe ll
ard s
Ġfin ished
Ġfo x
itt en
ed dy
Ġg u
Ġvis it
H is
Ġfly ing
ĠM aybe
Ġdin ner
Ġs ign
ĠT o
Ġs illy
g y
ĠJo e
Ġsec ret
Ġto day
Ġe l
i pp
Ġbe ach
Ġevery thing
ĠSo on
Ġsmile s
Ġf ield
Ġdan ger
Ġe le
Ġe ar
Ġw ish
Ġp udd
Ġp ig
Ġor ange
Ġri ver
Ġperf ect
Ġfill ed
Jo hn
Ġel se
Ġsa ng
Ġcontin ued
Ġsn ack
Ġwe lc
Ġb ite
ĠSara h
Ġg i
se s
Ġk ing
Ġchild ren
Ġsh in
ĠA t
Ġeat ing
Ġprom ised
Ġreal ized
Ġpiece s
z e
Ġf ur
Wh ile
e ad
Ġsp r
Ġf ree
ĠL ila
at ed
ĠE m
Ġmu d
Ġparent s
Ġbl ank
Ġj ar
st ead
Ġcare fully
itt ing
Ġdra g
M aybe
Ġblank et
Ġb oun
im i
J ust
Ġy es
Ġroll ed
Ġdr ink
Ġc ow
Ġsa il
Ġcry ing
Ġmon key
Ġb ath
Ġlaug hing
Ġgif t
Ġp urp
A my
Ġbott le
Ġdo ctor
Ġs oup
Ġwor ds
Ġamaz ing
Ġsn ake
Ġl on
Ġgra ndma
Ġbr own
Ġen ough
Ġp et
ĠB illy
Ġw he
ck et
Ġ Z
Ġask s
Ġlon ely
Ġbar ked
Ġpurp le
Ġwith out
i re
F in
us ed
Ġthr ow
is es
e y
Ġcra b
i ch
Ġmor ning
ch ool
Ġclos ed
Ġl ake
Ġwag ged
Ġsh op
Ġmo ved
Ġm oney
as ed
Ġc andy
un ch
Ġapp les
on s
f ort
e re
Ġwelc ome
Ġhig her
ĠG ra
Ġs chool
Ġat t
a le
Ġdanger ous
Ġs itting
i ver
Ġfair y
u b
Ġsho es
. âĢĿ
Ġpa w
Ġstr ange
or d
g g
Ġm ail
Ġcre at
Ġget ting
al thy
Ġp re
Ġst re
Ġli ving
Ġtre asure
Ġ -
i ble
ĠB l
us h
! âĢĿ
Ġp ast
f ish
Ġown er
ve l
Mom my
Ġpa ss
Ġtal king
Ġl etter
a ss
Ġshin ing
Ġrun s
Ġsm o
Ġche e
ĠTom my
Ġp h
Ġp ill
Ġe gg
a pp
Ġro ad
Ġw ings
bo ard
Ġm ad
Ġm other
Ġbel ie
Ġdrag on
Ġbr ing
ĠM imi
Ġfarm er
Ġthink s
Ġdelic ious
Ġpudd le
m e
Ġco at
Ġr a
Ġt eddy
Ġc aught
ĠC h
Ġco ll
Ġst and
Ġwh ist
e my
Ġb uck
ar m
ck s
o l
b ow
it ch
ask et
un a
Ġyear s
Ġb asket
ig h
Ġk ite
Ġno se
Ġse ar
Ġh or
s et
c hes
Ġsc ream
Ġsa me
Ġf an
Ġw ore
Ġb at
Ġday s
is k
Ġfin ally
Ġstar t
Ġto m
Ġpus h
Ġsw ings
ell a
u p
ig g
s w
Ġst one
Ġtast y
Ġsing ing
Ġgent le
in ed
Ġm ine
Ġher self
Ġan sw
Ġhop ed
Ġtr ou
Ġrain bow
Ġcar rot
Ġdro pped
Ġcr ay
Ġf it
ĠJ en
Ġv ill
Ġte ach
Ġte ac
Ġar ri
P lease
Ġch o
Ġwo ke
O K
Ġb ow
Ġsa ck
Ġp ers
isk ers
i er
Ġsh ap
Ġsp oon
J ack
aught y
Ġbus h
Ġsee m
am a
Ġc our
ra ct
er ry
' ll
Ġn aughty
Ġche ered
Ġbel ong
ph ant
Ġbre ad
Ġhid ing
Ġse ed
s c
s y
Ġtw ins
Ġb en
Ġp ile
Ġpl ane
Ġpu ppy
i pped
Ġshe ll
f used
Ġl unch
Ġf ence
ir th
Ġgre w
e b
irth day
Ġcour se
Ġcut e
Ġsh ook
ll ie
Ġro pe
Ġto uc
Ġsp in
Ġju ice
Ġstre et
Ġm in
Ġwonder ful
ĠBl ue
Ġbe ll
Ġj oy
Ġfore ver
G ood
Ġchee se
Ġshap es
Ġele phant
Ġvill age
Ġab le
Ġteac her
il k
Ġsp o
Ġn ut
Ġpr ob
Ġc orn
Ġarri ved
id ge
ĠTh ank
Ġprom ise
Ġsh ake
ĠR emy
Ġro b
Ġb irthday
Ġin c
Ġfe w
Ġd es
le m
Ġtouc hed
Ġe as
Ġm ilk
um b
Ġb and
Ġprob lem
Ġmo st
Ġbug s
Ġp op
ĠWh iskers
Ġwa r
ĠEm ma
b all
Ġp ower
Ġcar ry
b r
Ġbus y
Ġhear t
Ġstor m
Ġsound s
Ġc ave
o st
is a
Fin ally
ĠF red
Ġne ck
Ġbelie ve
ll a
i an
Ġfeel s
Ġpat ient
Ġben ch
co l
at o
Ġdoll s
Ġsh y
ad ow
g ly
Ġw ra
Ġc ir
ir t
Ġk iss
Ġrob ot
et er
Ġtow ards
Ġd ist
u nt
Ġl ate
Ġpo cket
Ġgr ay
Ġsh r
urt le
Ġli ve
ount ain
Ġno ises
e ared
Ġsp ark
Ġdis app
Ġh oney
ĠB ella
Ġhold ing
Ġu gly
Ġslow ly
Ġre c
Ġo b
Ġhelp ful
Ġstor ies
at or
Ġyou ng
og gy
Ġup set
our n
ir p
Ġme et
ar p
Ġj ourn
al m
Ġtreat s
ump y
l ing
Ġdri ver
Ġco ver
Ġball s
Ġd i
Ġdir t
re ad
Ġamaz ed
um ber
Ġse at
Ġs uc
Ġsee k
Ġpu zz
Ġsh arp
Ġt urtle
Ġhug s
Ġcl oth
oo se
Ġgl ow
ĠL e
Ġpill ow
Ġm ark
ld er
Ġspl as
Ġw ild
ep end
Ġhor se
pp ing
Ġprin cess
Ġmagic al
Ġz oom
Ġsand w
Ġstar s
Ġc ard
Ġsp id
fort able
ĠM ark
Ġn et
Ġor gan
Ġtri p
un g
il ing
Ġk itten
Ġm ist
o ve
Ġl ucky
Ġru de
Ġwhe el
Ġm ach
Ġsp icy
Ġbuck et
Ġw ide
Ġin stead
Ġhug e
Ġdro ve
Ġt aking
Ġs ug
Ġstr ing
Ġco in
S ure
Ġin v
Ġwhist le
Ġpar t
or s
Ġcra w
Ġc a
Ġfight ing
Ġwr ite
a ur
ĠJ im
ul ar
L ater
ĠFin ally
O f
B e
Ġs ick
n ot
He y
Ġbu bb
Ġb ri
ĠA nn
Ġsa l
op h
Ġfix ed
en s
pp er
Ġfor get
e st
Ġgi ant
Ġcan not
Ġle m
Ġcook ie
Ġmo on
l ower
ĠJ ust
d en
ĠC ome
Ġbo ss
Ġsong s
Ġ On
Ġb one
Ġcar t
Ġtast e
Ġcom es
Ġs er
Ġwa ve
Ġch ased
L ila
Ġhid den
Ġdad dy
ell y
Ġcon fused
er t
ĠGra ndma
ere st
Ġspid er
Ġli fe
Ġs el
Ġsnow man
Ġla st
Ġs uddenly
Ġth in
Ġshe lf
Ġfo ot
Ġc ou
Ġph one
Ġp ath
Ġint erest
Ġduck s
iz e
Ġadventure s
Ġste pped
ĠB u
Ġgra b
Ġb ark
ĠL isa
Ġwas n
Ġjo ke
Ġdri ve
Ġf le
Ġch ick
Ġr ing
Ġmach ine
Ġpe ace
Ġte a
o se
Ġgr umpy
Ġd rew
Ġland ed
Ġ N
Ġsel fish
Ġc e
Ġas h
Ġb an
S t
Ġl ater
Ġo ven
Ġtake s
Ġp an
t o
Ġch ange
Ġbe ak
Ġs our
Ġsp e
Ġwor m
Ġt ie
Ġj og
Ġshe ep
Ġv al
ĠLe o
Ġac ross
Ġmy ster
Ġwas h
Ġr ad
Ġfruit s
Ġsmo oth
if e
Ġleg s
ĠM olly
e ver
k in
Ġmiss ed
op e
Ġcloud s
Ġb ought
ĠMom o
Ġgr ate
Ġex p
iz z
it y
? âĢĿ
m er
Ġem p
Ġemp ty
T o
pec t
Ġstick s
Ġsl id
er y
Ġ ent
Ġc alm
ĠDad dy
Ġf il
Ġmess y
ĠC at
Ġwatch ing
ĠJ ill
Ġgrate ful
bo x
Ġim ag
Ġsmell y
d ge
Ġinterest ing
Ġf ing
iz zy
Ġpuzz le
Ġban an
ug g
Ġhe althy
ig er
ion s
Ġl ay
et h
oo p
Ġcle ver
Ġp our
ĠB unny
Ġj elly
Ġsleep y
un k
Ġth ough
Ġseem ed
le t
Ġst ep
Ġexpl ain
Ġpr ot
am ed
y ard
Ġwo lf
Ġspr ay
S oon
Ġhop e
Ġ ign
Ġm ot
ĠL una
Ġb a
Ġback yard
Ġfin ish
Ġal ong
Ġa ct
Ġa v
Ġque st
ar s
Ġface s
Ġwho le
ĠD oggy
C ome
ll o
Ġm ed
Ġque en
w ard
Ġnot hing
Ġwor king
Ġsa ve
Ġs u
Ġdog s
Ġsmell ed
Ġlong er
Ġf ake
Ġany one
Ġrock et
Ġeas y
it ing
Ġpl ate
ĠJ erry
Ġl ine
w el
m ing
Ġspl ash
Ġt id
Ġp in
o cked
Ġwe ak
Ġsu pp
irp y
Ġsc ar
m ent
ĠB e
ir r
Ġso l
oom y
on t
or k
Ġne igh
Ġtrou ble
Ġc ross
Ġp ract
Ġje wel
Ġwonder ed
Ġl ad
b ar
Ġforg ive
Ġz oo
Ġm aybe
ul t
o c
Ġli ft
Ġexpl or
Ġboss y
Ġfe ather
ĠW ith
Ġlem on
Ġarm s
Ġjump ing
Ġsa ved
u ally
ar ge
Ġche w
Ġneigh b
Ġsh irt
Ġgive s
Ġy og
Ġk ick
ra ss
Ġfr ont
bar rass
aught er
Ġtid y
Ġm ind
Ġdr um
Ġem barrass
Ġon to
or row
Ġgent ly
ĠO llie
s p
Ġlad der
Ġw ing
Ġpers on
Ġa f
on es
Ġsh ip
Ġcray ons
a w
ĠM ary
Ġput s
Ġlove ly
Ġla w
Ġs uch
Ġs ur
Ġwait ing
Ġche er
Ġant s
Ġmist ake
Ġplace s
ge st
Ġswim ming
Ġb al
Ġp izz
one st
Ġl arge
ĠThe ir
ĠWh y
Ġpoin ted
Ġclean ed
Ġst ood
Ġboun ce
Ġp ool
Ġcl own
ur se
er a
ra id
n ed
Ġfan cy
Ġd aughter
Ġw ip
S ally
Ġp ack
Ġaf raid
Ġbuild ing
K itty
ĠCh irpy
ĠM y
Ġla zy
e k
Ġre t
Ġde er
Ġtom orrow
Ġh onest
Ġco zy
A nd
Ġprin ce
Ġsear ch
Ġpizz a
Ġh um
Ġret urn
Ġplant s
M y
Ġsplas hed
Ġri ch
Ġe ag
Ġlove s
Ġscar f
Ġm ap
ĠS omet
Ġtr ue
Ġpretend ed
ac ed
Ġbor ing
in a
Ġfe ar
Ġte eth
Ġnear by
ĠI f
ad o
Ġgo es
Ġansw er
Ġfur ry
Ġsandw ich
Ġn umber
Ġst ra
Ġlo ck
Ġapp eared
ic ked
ĠT V
Ġtr ust
Ġc and
Ġd ish
Ġg ather
Ġscream ed
Ġsn ee
o ppy
Ġpower ful
Ġch ase
Ġv an
Ġimp ress
Ġwe aring
Ġbo ot
Ġtoo l
Ġha ng
u ce
Ġmat ch
Ġg un
ĠTo gether
Ġmot or
ĠG o
Ġp ri
ĠBob by
Ġcou ch
ĠP lease
el p
Ġru b
Ġcreat ive
Ġcir cle
Ġte st
Ġst ret
om an
v ous
Ġhe llo
Ġso ap
Ġash amed
p a
Ġmat ter
Ġw oman
Ġnot e
Ġno isy
Ġsuc cess
Ġso ld
Ġsh adow
ra g
Ġcar ried
Ġ icy
irr or
ĠS t
os aur
Ġh ur
ut e
Ġn er
Ġsa f
Ġm irror
Ġsm iling
Ġprin t
Ġjourn ey
Ġd ig
St op
Ġner vous
Ġg en
ĠD on
Ġgl ue
Ġher o
Ġdin osaur
m b
Ġprot ect
Ġtri es
Ġre g
Ġr are
Ġfl ag
Ġa p
if f
ĠH ow
Ġcla ss
Ġclos et
itt er
Ġcho col
ĠB ird
Ġpol ite
H elp
Ġm el
Ġgo ld
Ġdr ank
ĠBen ny
Ġpre s
Ġl amp
Ġba ld
Ġle ad
Ġpo or
Ġt ick
Ġeag er
u al
is p
nd pa
Ġthe se
Ġf at
Ġkne e
Ġh ar
n ic
Ġfo ld
Ġdis co
ĠS p
Ġsh ark
Ġc ap
Ġfe et
im p
Ġsc o
Ġpic nic
sc ape
Ġwa nd
Ġe lder
Ġcl ap
iss ors
Ġbr ush
Ġk icked
Ġbe an
Ġdanc ing
Ġchocol ate
Ġballoon s
Ġres pect
Ġembarrass ed
Ġp ump
Ġg ate
Ġmyster ious
Ġelder ly
Ġrel ie
Ġcr own
Ġmar ch
Ġpeace ful
Ġbr idge
Ġte le
ow ed
Ġs que
Ġpain ted
Ġwh isp
ens ive
Ġclo ck
vent ually
Ġg igg
ot e
Ġsc issors
Ġp ay
Ġexp ensive
Ġt ape
ĠSomet imes
Ġgen er
Ġlo g
Ġwor d
Ġw is
Ġte am
Ġmix ed
le br
Ġc ri
Ġtow el
Ġth ick
Ġst ir
ar l
Ġwh ale
Ġsug ar
r ob
Tom my
Ġce lebr
Ġt ent
Ġkn ocked
Ġbec ome
rag ile
Ġd izzy
Ġdec or
an y
Ġc age
Ġyell ed
Ġb ake
ĠB r
Ġgr oup
Ġcorn er
Ġwe ird
Ġr ough
Ġwould n
Ġsp read
Ġlo se
D ad
ĠB ear
Ġv ase
Ġh orn
Ġsc are
Ġdraw ing
c ed
Ġf ragile
ĠT iny
Ġtast ed
Ġso ck
s er
Ġmight y
get able
Ġt er
Ġbo ard
Ġchick en
Ġgener ous
Ġb arn
Ġve getable
l ves
n ess
Ġmom s
Ġcle ar
ust r
Ġpr ay
bb orn
Ġ 3
Ġbl ow
Ġn orm
Ġinc red
rob e
Ġsp ace
y m
Ġorgan ized
Ġad m
Ġnorm al
Ġstu bborn
Ġgl ass
Ġbal ance
Ġfam ous
Ġbran ches
Ġg as
Ġter ri
ĠM ama
Ġpres ent
Ġm ic
Ġy arn
Ġincred ible
Ġwra p
ĠS ome
um e
Ġwag on
Ġfr ustr
al ous
air s
Ġrelie ved
Ġje alous
Ġign or
Ġcreat ure
Ġt aught
Ġb er
Ġfe ed
Ġgu ess
Ġber ries
Ġwa ke
Ġun us
Ġwh ich
Ġj et
Ġm is
ig hed
p ort
Ġunus ual
c ient
Ġm ountain
Ġegg s
Ġc ab
f ic
l ace
Ġsw an
Ġf ine
Ġhear s
Ġfr ight
Ġdif fic
Ġfrustr ated
Ġexplor ing
i que
Ġan cient
Ġwas hed
Ġf ool
Ġtw ist
Ġneck lace
Ġsun f
W here
d le
Ġro ar
Ġspo iled
Ġun ique
Ġdiffic ult
Ġfi er
Ġunderst ood
Ġfier ce
ĠT r
Ġwr ote
bb y
Ġdisco ver
Ġc one
Ġcab in
or ry
Ġho se
Ġro se
Ġpol ice
Ġsp ent
k n
o nd
r ay
Ġd ug
Ġse ll
Ġde ad
Ġ '
Ġtell s
Ġstra w
Ġb urn
al k
Ġterri ble
Ġex am
Ġto ug
Ġj am
Ġha m
on y
Ġst at
Ġgo at
Ġcra zy
Ġcom fortable
Ġbl oom
Ġfind ing
kn own
Ġun l
Ġfright ened
Ġa dd
Ġwa ves
Ġor d
Ġsqu are
Ġbre ath
sh ine
Ġtoug h
u nd
Ġfool ish
Ġpump kin
Ġd ull
Ġst uff
ĠD ucky
c il
Ġgl oomy
Ġbath room
Ġun known
Ġme asure
l ive
Ġend ing
Ġcl ay
Ġpot ato
Ġb itter
Ġt iger
Ġpen cil
a pped
x ible
Ġto ast
Ġsear ched
Ġdr op
Ġdo ve
Ġcat s
To gether
Ġ ind
Ġno sy
ĠP e
Ġche st
Ġp ir
Ġsho e
Ġfing er
Ġc her
Ġsun shine
Ġstat ue
i ant
Ġbubb les
Ġpaw s
y al
Ġuse ful
Ġcl um
Ġthank ful
Ġcoll ect
Ġyour self
Ġw itch
re en
Ġcover ed
Ġstraw ber
ĠBr own
al s
Ġsw ord
Ġas king
Ġjoin ed
Ġval ue
ĠA l
Ġsal ad
He re
Ġdelic ate
Ġbo dy
an ged
Ġst ri
Ġclum sy
Ġnut s
c om
ĠE lla
Ġsho ot
Ġexc iting
Ġsunf lower
E very
g u
l ight
M e
Ġsol ve
Ġtom ato
Ġli f
Ġmo v
Ġwa ff
Ġyour s
Ġhair y
c orn
Ġtri ck
Ġwe althy
ĠW ill
Ġfle xible
Ġth irst
J im
Ġm ask
un n
Ġlo yal
ump et
ink y
Ġmo ving
Ġadvent ur
Ġbanan a
Ġtr umpet
Ġsh ore
Ġbor ed
Ġexplain ed
er p
ll iant
Ġno ds
b led
Ġc ro
Ġadventur ous
Ġpe pper
Ġbri lliant
Ġseed s
Ġthirst y
Ġmu ff
se lves
ĠM any
Ġa unt
g round
Wh o
Ġneighb or
or y
Ġpop corn
ĠJim my
il t
ĠAnd y
ĠR ex
Ġas leep
g ust
ĠWh ile
Ġmark et
Ġrel ax
y ing
Ġs uit
Ġst ones
in al
Ġd epend
Ġla b
Ġdis gust
M um
Ġor ig
Ġboat s
Ġz ip
Ġmed ic
Ġr at
ung le
Ġst age
Ġkn ife
Ġac orn
Ġh ay
Ġch anged
Ġh arm
id ent
Ġmo le
Ġche ap
Ġc ries
Ġar row
Ġsh iver
Ġknow ing
id dle
Ġfr own
Ġfl ash
Ġjo lly
Ġmedic ine
Ġsnack s
Ġj ungle
Ġhat s
ĠIn stead
an ut
Ġfear ful
Ġsh ine
Ġorig inal
Ġg em
Ġst amp
Ġen orm
Ġenorm ous
Ġg oose
In side
Ġdisgust ing
I f
Ġf our
ic t
Ġf ig
Ġsmall er
ĠT w
Ġ U
Ġt imes
ĠYou r
Ġje ep
Ġvegetable s
m et
Ġsque e
H ow
Ġrem ind
Ġpig e
Ġcu be
Ġcount ed
Ġcat erp
Ġcaterp ill
in ess
Ġhel met
l ph
at es
mb re
l and
Ġu mbre
Ġc am
Ġdepend able
p es
Ġm iddle
m ost
Ġind epend
ed ient
Ġ No
Ġen g
Ġbott om
Ġcare less
Ġser ious
Ġre f
Ġcarrot s
Ġpar rot
Ġdo lph
Ġg ar
Ġperf orm
Ġal most
S orry
Ġmel on
p id
Ġpain ting
ak en
Ġob edient
Ġe scape
Ġme al
t i
Ġs ighed
Ġch oose
Ġbed room
Ġindepend ent
Ġhe al
Ġham mer
Ġsl ipped
Ġcoll ar
Ġg um
Ġimpress ive
Ġfr idge
h ost
Ġsto ve
Ġl ow
Ġmag n
Ġstu pid
Ġbor row
ax i
en ny
Ġdes ign
Ġfor k
Ġstu dy
our s
Ġco st
Ġg uit
Ġhouse s
Ġcaterpill ar
Ġmail box
he t
A re
Ġsc r
d ile
co dile
Ġf ountain
Ġlif ted
Ġt aken
ia ble
Ġd ough
ot o
Ġsuccess ful
Ġfl ute
Ġspot ted
Ġg host
Ġbu ilt
Ġ er
Ġde st
Ġfil thy
Ġrec ord
Ġt axi
Ġf is
Ġp ant
er able
Ġshow s
o in
ag het
aghet ti
Ġho pping
Ġpri ze
Ġsa uce
Ġr h
Ġis land
ur key
Ġget s
ip e
Ġbelong ed
am ond
Ġsp aghetti
Ġcomp et
Ġcray on
Ġmis erable
as ses
Ġspr ing
M olly
Ġh oop
The re
Ġguit ar
Ġdi amond
Ġcro codile
Ġcry st
Ġr aced
Ġt ied
Ġt urkey
Ġmo der
Ġj ug
Ġgar age
Ġle an
Ġc ere
Ġcheer ful
ĠS n
Ġumbre lla
Ġplay ful
Ġpe bb
Ġpop ular
Ġtri ang
Ġcraw led
Ġto r
Ġwa nder
Ġmoder n
Ġthought ful
Ġbat ter
Ġdisapp oin
Ġs il
Ġcr ane
Ġeng ine
ag es
Ġpe anut
Ġav oc
Ġan g
Ġcand le
Ġqu ar
i o
Ġneed s
ĠTr ue
Ġsco ot
Ġmov ie
Ġwhe at
Ġra ven
Ġmagn et
Ġan x
Ġme ant
Ġcere al
Ġanx ious
Ġt ire
Ġs ink
Ġto oth
Ġru ined
Ġste al
Ġkiss ed
as er
Ġpant s
Ġc op
c les
Ġy aw
Ġtw ig
Ġpick s
a ppy
Ġsc ale
in ary
ll ip
llip op
Ġcra ck
Ġhurt s
Ġp ress
Ġp ian
Ġbel t
Ġcryst al
Ġrel iable
Ġpass ed
Ġr ug
Ġlo llipop
c ut
Ġquar rel
Ġcam era
a ff
Ġpian o
Ġt ank
Ġfig ure
Ġr ag
Ġhard er
Ġbra ce
Ġinv ited
il ty
ce an
Ġgu ilty
at ch
Ġo cean
J ane
z ed
Ġsw e
Ġtor n
Ġcompet it
Ġn ail
Ġtri cks
Ġstand ing
Ġhum ble
Ġon es
Ġch arm
Ġhelp s
ed y
ic op
icop ter
Ġlo cked
Ġca ct
Ġpige on
Ġcom b
Ġfl uffy
Ġus ing
Ġhel icopter
Ġsmo ke
Ġharm less
Ġdisappoin ted
ĠJen ny
Ġr id
M ama
Ġd ust
Ġmu sh
com fortable
Ġun comfortable
Ġgra ce
Ġde af
ack et
Ġear s
Ġli cked
Ġhelp less
Ġtrou bled
c ident
Ġro of
Ġreg ular
h ip
ĠE ven
Ġneed le
Ġansw ered
Ġshr imp
Ġcact us
u be
Ġlo ad
Ġwra pped
Ġv ine
Ġl it
Ġli z
Tim my
The ir
Ġflash light
Ġj acket
Ġkn ot
Ġt unn
Ġw ire
Ġtunn el
Ġpa le
Ġpers ist
Ġte ars
Ġloo p
ĠSam my
Ġyog urt
Ġco ins
Ġcharm ing
it her
i v
p ack
Ġen v
Ġsp ill
ell ig
Ġmush room
Ġp ipe
Ġsp end
Ġt ap
Ġre p
Ġcar p
Ġint ellig
Ġang el
Ġro de
Ġwalk s
Ġcomp ut
Ġgi ving
ri ll
ul u
Ġspe ed
Ġblue ber
Ġc omet
Ġsh ape
Ġtick et
Ġhapp iness
Ġboy s
Ġm ill
Ġfriends hip
Ġpour ed
g ing
Ġrad io
Ġt ag
Ġhar sh
Ġwhisp ered
Ġac cident
ass ion
Ġord inary
Ġcarp et
Ġcre ate
u bby
Ġp ow
Ġdi ary
Ġsh ade
Bob o
Ġdolph in
Ġs le
Ġbe et
Ġha lf
at ter
Ġliz ard
Ġpersist ent
Ġt ube
Ġc oo
Ġnot eb
ĠO K
Ġnoteb ook
Ġch ubby
Ġcomp assion
Ġm ug
Ġdel ight
Ġv ide
Ġcomput er
Ġh ook
Ġpast a
Ġpen gu
ut h
Ġrest less
Ġli br
Ġsc reen
co a
ĠJ ake
Ġoff ice
Ġtr unk
Ġintellig ent
cy cle
lc an
Ġsqu ash
Ġfor ward
an ger
Ġshe et
ĠTo day
Ġtriang le
Ġhair cut
Ġquest ion
Ġreturn ed
Ġavoc ado
Ġpract iced
Ġno d
Ġscoot er
lcan o
Ġo at
ul if
Ġv i
ĠS h
c col
Ġor der
Ġdest ro
ccol i
Ġl ying
Ġdel iver
Ġbrace let
Ġplan et
Ġm itten
c ream
Ġsa iled
Ġjelly fish
Ġsold ier
Ġer aser
Ġh unt
Ġm elt
Ġpo em
Ġpar ade
Ġdes k
Ġstrong er
Ġpr o
Ġca ulif
Ġgif ted
Ġquest ions
Ġst ream
Ġwe ek
Ġcraw l
at ient
ess ie
Ġsleep ing
Ġth read
om es
Ġstret ch
as ing
Ġin se
Ġvo lcano
Ġfeather s
Ġm op
az z
az e
Ġcaulif lower
op ard
Ġtra ck
Ġenv ious
Ġsp un
ie f
Ġb ull
v ator
Ġac ce
p ed
Ġco coa
Ġele vator
Ġbeet le
y e
Ġen c
ĠBu zz
Ġway s
Ġbe es
Ġcl ub
Ġhappen ing
Ġgu ard
d om
Ġbox es
Ġdream s
Ġtra vel
Ġbar ber
Ġe ventually
Ġbro ccoli
Ġcompetit ive
Ġju dge
Ġsun g
Ġband age
G o
Ġb in
it al
Ġal ert
Ġsk in
umb ers
ĠF r
Ġwall s
Ġsle pt
Ġvi ol
Ġle opard
Ġch alk
Ġon ion
Ġho sp
Ġspe ak
Ġcompassion ate
Ġinse ct
Ġb icy
Ġp it
ob y
Ġsn iff
Ġgrace ful
z zy
Ġhosp ital
Ġnice ly
Ġimp atient
rew ork
Ġen vel
Ġad or
Ġdist ant
Ġmuff in
is ted
Ġcelebr ate
Ġ ed
Ġbig gest
ĠP ipp
Sara h
Ġwheel s
Ġunl ock
Ġc ush
Ġear th
ul b
Ġme at
Ġexc ite
l asses
Ġdec ide
Ġatt ract
Ġmotor cycle
Ġsung lasses
Ġn umbers
Ġpe ach
ĠP oppy
Ġtruck s
Ġru bbed
Ġve st
Ġboun ced
Ġra ft
Ġpol ish
Ġloud er
Ġviol in
ĠL ulu
Ġbubb le
Ġc urt
Ġsh ield
ra ge
Ġch ain
Ġador able
Ġcom pl
Ġb ulb
Ġh omes
Ġcurt ain
Ġun cle
Ġdestro y
Ġtr uth
Ġtra p
Ġcount ing
Ġsk ip
Ġfi rework
Ġcup board
er op
Ġte m
erop l
Ġs end
Ġb ump
Ġtr ay
Ġd eter
Ġc ase
Ġp ony
Ġattract ive
Ġa eropl
Ġb ase
Ġsh ut
Ġlearn ing
Ġsk ipped
Ġsur f
us ie
ter n
Ġmet al
Ġth ief
Ġst ack
Ġmat t
Ġsnee ze
Ġdeter m
ur b
Ġgl ove
B illy
Ġth u
Ġsor t
Ġfil m
Ġpebb le
Ġcoo ked
Ġfor th
Ġlive ly
Ġcri cket
Ġsay ing
Ġwip ed
Ġbeh ave
at ing
Ġro d
Ġtr oph
Ġclean ing
Ġignor ant
Ġthem selves
eb ra
Ġbus hes
Ġdist urb
Ġz ipp
ag ed
G ra
Ġspin ning
ch air
ig ator
Ġhe dge
Ġres c
Ġwis hes
Ġt ummy
Ġsp ear
Ġshow ing
Ġbutton s
umb led
Ġf ather
et e
Ġlight s
Ġsc atter
w ork
Ġarm chair
Ġmatt ress
Ġcart oon
Ġwaff le
Ġsa us
Ġlaugh s
Ġun iver
Ġin k
Ġstr anger
Ġenvel ope
ĠEm ily
Ġtroph y
Ġsp ell
Ġpoin ting
Ġall igator
Ġfo lder
j ect
Ġpr un
ent ion
Ġz ebra
Ġher b
Ġent h
Ġve il
Ġsk ull
ak y
Ġpat tern
Ġcomp let
of fe
Ġgr own
Ġmar ry
Ġbicy cle
offe e
Ġgr owl
is ion
Ġy ach
Ġimp ro
Ġf u
ĠP olly
Ġpir ate
Ġlibr ary
Ġtem p
Ġc ity
Ġloud ly
Ġp urse
Ġpen ny
Ġpre p
us ia
Ġjourn al
Ġcompl ain
Ġenth usia
Ġk ay
Ġpo ke
Ġc able
Ġp le
b ul
Ġknow s
Ġri ce
Ġpo st
Ġstrawber ry
Ġed ge
Ġdraw ings
el ery
de st
bul ance
Ġam bulance
Ġfr ame
ĠF o
Ġon ce
Ġmag az
Ġdecor ate
ĠTw eet
Ġspl it
Ġenc ou
Ġw ool
ur ing
Ġst ation
Ġn urse
Ġbag s
Ġbrother s
Ġsug gest
Ġyach t
Ġyog a
Ġro ot
ĠL ittle
Ġso ar
it o
Ġc offee
Ġc elery
Ġrad ish
Ġaeropl ane
Ġr ot
ri c
Ġy et
Ġvide o
Ġglow ing
Ġste ak
l ies
us hed
Ġc amp
qu ito
Ġkay ak
ot ter
Ġo y
Ġfall s
Ġfle a
Ġgather ed
Ġ otter
Ġplay ground
ht ub
Ġkn ight
Ġbat htub
Ġtele ph
Ġd ive
Ġco al
Ġmo s
Ġshell s
Ġswe ater
Ġre pe
Ġl ed
Ġp un
ĠM um
Ġcush ion
Ġc ob
Ġp ine
il ot
Ġit self
ie w
Ġbar rel
Ġmos quito
Ġse al
Ġdri ving
Ġstr ugg
Ġteleph one
a ving
ĠR ose
Jim my
Ġmo dest
Ġsal t
Ġsupp ort
?" .
Ġtri pped
Ġme adow
Ġv iew
Ġmean s
ut es
Ġsw itch
w eb
Ġm ild
Ġpo le
Ġcall ing
ĠBird y
G ive
Ġmix er
Ġcob web
p ar
Ġw ife
Ġgo lf
Ġwhen ever
ce ed
n am
Ġpow der
, âĢĿ
c ase
a it
he ad
Ġmiss ile
Ġread ing
Ġar g
ĠT ina
Ġhot el
Ġwall et
Ġmake up
Ġmess age
Ġst aff
Ġfoot ball
Ġpengu in
w e
es day
Ġman aged
Ġfis her
l a
Ġslid es
Ġri bb
Ġh ipp
Ġp ilot
ĠP eter
ac he
Ġha ll
Ġo ak
Ġmin utes
Ġa dded
Ġbark ing
Ġrep air
W ell
nam ent
et ty
Ġor nament
Ġdeterm ined
Ġsuc ceed
t ime
Ġte ar
Ġfire man
Ġatt ic
ĠD an
oph one
se um
Ġsh ort
and a
n ger
ill a
Ġmar ble
Ġkind ness
Ġqu it
Ġdisapp eared
ĠPe ople
ar oo
Ġth ose
Ġmu seum
Ġey e
ang aroo
Ġl ime
ist ol
in es
Ġc ell
J ill
o ld
st ic
Ġla und
Ġsand box
Ġsail or
Ġlaund ry
Ġe ither
Ġroll ing
ir it
Ġhur ry
Ġthu nder
Ġear ly
as her
Ġmagaz ine
Ġo il
Ġsho cked
Ġenthusia stic
Ġk angaroo
B ye
Ġgigg led
Ġse par
Ġcup s
Ġgra pes
Ġfisher man
w asher
uc et
Ġs ight
h ic
Ġst airs
Ġcol our
Ġve hic
Ġbanan as
Ġzipp er
Ġhipp o
Ġp istol
Ġkn ock
Ġla ser
Ġfa ucet
Ġche ss
ĠR ob
ir on
Ġpat ch
Ġt ask
Ġdish washer
Ġtemp le
Ġm ath
ĠL ook
Ġt en
le ton
ke leton
Ġtool s
Ġfl ame
Ġgra ndpa
Ġper m
Ġsaf ely
Ġst umbled
Ġsc rew
re ady
Ġbath robe
Ġd ess
Ġcook ing
Ġbike s
ap ers
Ġpe e
Ġ ow
Ġre ward
ctor y
c ing
r ophone
Ġa ut
Ġph oto
R e
ar ian
Ġenjoy ing
Jo e
Ġv end
F luffy
Ġnew sp
Ġal ready
Ġrem ain
c key
Ġho ckey
Ġres ist
Ġoy ster
n ey
Ġo k
Ġfl our
Ġhold s
Ġfa ctory
Ġmic rophone
Ġre ver
Ġno vel
Ġdraw er
Ġpa cked
' d
A l
Ġ oft
Ġm aze
Ġit ch
ug ged
Ġcard board
Ġoft en
Ġf ive
r on
Ġpast ry
Ġh ours
Ġp al
ĠM iss
Ġbat he
Ġg rill
Ġset t
en se
Ġhand le
Ġopen s
bo l
ail able
Ġcan e
Ġmu le
ym bol
ke ep
Ġmar ched
Ġhang ing
ĠSn ow
S ee
im ney
Ġr ake
Ġvend or
Ġt ut
Ġme m
Ġhunt er
pl ay
ĠHe re
ob ile
Ġr ise
om obile
Ġfrog s
Ġav ailable
Ġaut omobile
Ġthin king
Ġcomplet e
Ġs keleton
Ġg ear
Ġfast est
E m
Ġj unk
Ġpick ing
Ġfree z
up er
Ġch imney
Ġpal ace
in ation
Ġan ch
Ġcool er
ĠT oby
Ġp or
Ġcher ries
Ġcost ume
Ġsil ver
Ġtut or
ur ch
ct op
ĠP ete
Ġstep s
Ġju icy
Ġu r
Ġpack age
Ġoat s
Ġs ymbol
Ġwe ep
Ġreal ised
Ġdis play
Ġnap kin
Ġboot s
Ġtra il
az or
Ġanch or
Ġimag ine
v et
Ġstar ed
Ġorgan ize
Ġc ord
c ome
Ġ iron
ĠEvery where
Ġfing ers
ctop us
Ġall owed
Ġsp irit
Ġval u
Ġm ay
Ġbase ball
Ġdess ert
l oo
ĠS unny
Ġbatter y
Ġpretend ing
Ġdream ed
Ġf og
Ġjump s
Ġpe ar
Ġdiscover ed
Ġ ig
Ġh ut
Ġl end
Ġnot ice
Ġswing ing
Ġig loo
Ġsn e
Ġatt ach
Ġwh ip
W ait
Ġa x
Ġtra sh
Ġblack board
Ġtorn ado
Ġb ill
Ġstick ers
Ġagain st
Ġmin er
Ġg or
Ġo ctopus
Ġch urch
ar ry
Ġo live
Ġfall ing
Ġnam es
ĠG ive
Ġspark ly
z ag
Ġle ash
Ġlot ion
Ġexcite ment
ĠB essie
Ġpract ice
Ġrh in
Ġtight ly
Ġax e
Ġcow s
Ġpin ch
Ġspill ed
Ġpor ch
v ision
Ġletter s
keep er
ĠSp ike
ig zag
ĠS usie
Ġgas ped
O w
Ġsh aking
Ġs on
Ġf ile
at ure
Ġtall er
Ġstop s
Ġc ards
Ġfu el
Ġche ck
Ġtele vision
at ely
Ġsn ap
ĠK im
Ġm en
Ġclimb ing
Ġspo ke
ĠPipp in
Ġimpro ve
Ġho les
ĠZ ip
ic hes
Ġtow ers
l u
Ġt ub
Ġjoke s
Ġs uper
Ġthe ater
Ġp ed
Ġair port
Ġsandw iches
ro sc
Ġp apers
er os
ion ary
rosc ope
Ġdist ance
Ġnewsp aper
ict ionary
Ġpress ed
Ġoff ered
v ice
d robe
Ġwar drobe
pl ace
oc eros
ur ed
ie st
i k
Ġr azor
Ġbook case
Ġbooks he
Ġs ize
Ġmed al
Ġvalu able
I s
Ġro ared
a id
Ġtell ing
ĠZ oom
Ġfreez er
ĠB etty
Ġbill board
Ġshr ink
e er
Ġmin t
Ġsaus age
ht ray
Ġpo ked
Ġru les
Ġpro v
Ġbookshe lf
Ġne at
Ġcir cles
Ġgor illa
Ġg ym
Ġrhin oceros
ĠC o
Ġdoes n
as is
ac hes
bo dy
Ġfe st
Ġcabin et
ĠA re
Ġfire place
Ġcho se
aur ant
Ġre ce
Ġrest aurant
Ġbasket ball
Ġbe ep
Ġli e
iv al
Ġbl in
Ġperf ume
Ġinc lu
Ġdis ag
Ġd ictionary
Ġsquirrel s
Ġob ject
Ġdream ing
Ġresc ue
Ġgrow ing
Ġpass port
l ter
Ġs ub
Ġo asis
Ġas htray
Ġgra nd
Ġdra in
Ġha nger
Ġshe lter
Ġm ummy
ile t
Ġlight ning
amp oo
Ġwip e
Ġlab el
Ġa head
Ġhapp ier
Ġpain ter
Ġstret ched
Ġto ilet
Ġhun g
Ġbuck le
Ġcom fort
r iger
Ġbri ck
riger ator
Ġany way
Ġfest ival
Ġag ree
om ed
Ġref rigerator
Ġhelp er
Ġre ind
f ast
Ġpo pped
c u
Ġlisten ing
Ġg ain
Ġ ext
Ġsh ampoo
d el
Ġbreak fast
Ġsk irt
Ġad vice
Ġle aving
Ġl umber
ec ted
Ġop era
Ġte ase
Ġhat e
Ġinv ite
Ġple ased
t e
Ġli p
ree k
Ġpoin t
Ġs of
og n
Ġblueber ries
Ġdisapp ear
Ġreind eer
L ittle
Ġc reek
Ġser ve
Ġr ail
i ence
Ġal arm
Ġch ance
Ġgra pe
Ġany where
Ġqu iz
Ġsweet ie
Ġbee f
i um
Ġwe ather
Ġrec ogn
bb les
Ġrever se
Ġlaw y
Ġsof a
Ġsw amp
Ġmo del
Ġtra ins
Ġbelong s
Ġlean ed
Ġob ser
Ġh ive
Ġstir red
Ġrid ing
ĠT eddy
Ġun pack
Ġmic roscope
Ġpee ked
Ġce iling
g en
st ri
Ġbutterf lies
Ġbl ouse
ĠGra ndpa
Ġp anda
Ġkn ob
Ġpe ek
Ġsepar ate
Ġvehic le
e f
ĠB oun
D aisy
Ġst om
Ġsl ipp
Ġtw ir
rm omet
Ġbu ry
x y
Ġjewel ry
Ġaccident ally
rmomet er
is on
Ġwe igh
M r
st airs
Ġso il
Ġ V
M ummy
n ight
Ġhappen s
Ġrub ber
Ġsub way
Ġext ra
af fe
re s
re nder
O uch
Ġfor t
Ġj ail
ĠDo lly
Ġc ale
Ġcale nd
Ġmusic ian
in arian
ast ic
Ġwindow s
eter inarian
Ġacce pt
ik i
Ġsw ung
Ġv eterinarian
Ġtr ade
n a
Ġmeet ing
Ġlawy er
Ġc udd
Ġun ite
Ġsound ed
Ġcri b
Ġre fused
Ġo stri
Ġap ron
Ġcl iff
as p
l ow
Ġpast el
Ġin s
Ġli c
Ġl id
Ġt una
Ġb et
Ġn ature
ad ium
ĠC l
Ġcalend ar
Ġst adium
Ġs ent
!" .
Ġlaw n
um mer
Ġcar ing
ĠR ed
ĠW here
ang u
ĠP andy
Ġl angu
Ġpudd les
Ġproblem s
Ġp age
Ġgir affe
Ġimag ined
Ġmonkey s
Ġwin ter
Ġspo il
Ġthe rmometer
Ġb ent
Ġst able
Ġgo al
Ġfav our
Ġsad ly
ĠMr s
Ġste am
Ġadm ire
Ġsuggest ed
Ġs uff
Ġsquee ze
Ġin f
Ġre ef
ric ane
Ġlic ense
Ġpre vent
D id
Ġfix ing
Ġmiss ing
Ġfind s
Ġwar ned
Ġwas te
am ber
Ġab ove
ĠM ar
Ġstar ts
Ġch asing
Ġsurpr ises
Ġostri ch
ation s
ĠBu zzy
Ġfavour ite
Ġsearch ing
all ey
Ġdoor s
Ġshow er
Ġclass room
Ġv alley
Ġcarry ing
c age
Ġw igg
Ġbird cage
Ġch amber
Ġexcited ly
Ġflo at
ĠB inky
it ure
el come
urn iture
Ġbright ly
ve al
Ġblin ked
Ġ Y
ĠO w
Ġchair s
Ġhum an
th ank
Ġs ummer
Ġf urniture
Ġar t
Ġhand ed
Ġstick er
asp oon
Ġpus hing
Ġign ore
Ġshout s
Ġmistake s
Ġcho ice
if orm
Ġun iform
Ġpa ir
Ġr ushed
Ġre veal
Ġm ass
Ġarg ue
Ġlion s
Ġfrown ed
M ary
m ed
ĠHe l
Ġforg ave
Ġa w
Ġsnee zed
C h
Ġy ield
Ġsa ving
Ġra ise
pe edy
Ġinc re
a ked
Ġribb on
Ġm all
Ġplay er
Ġrem ove
Ġrepl ace
Ġsur render
Ġdanc er
Ġc ur
Ġme as
ro d
Ġmust ache
Ġrespect ful
Ġyaw n
ĠAl ice
Ġint rod
Ġzoom ed
Ġstri p
m end
Ġpl astic
Ġwe ap
Ġte aspoon
Ġcla w
ch an
You r
ol a
Ġsupp ly
Ġp ages
Ġend ed
Ġsniff ed
Ġsun set
Ġpull s
ĠO live
om mend
Ġsl ip
Ġadm ired
ec ause
Ġhur ricane
ĠB ill
Ġinf ant
Ġg ro
ĠC arl
Ġrepe at
e or
ĠB ig
Ġshake s
Ġpl ates
Ġrec ommend
Ġslipp ery
o of
Ġsp ade
Ġpoin ts
Ġf ought
Ġold er
Ġeven ing
Ġdel ay
a ul
Ġde ar
Ġlangu age
Ġ âĢ
Ġsho vel
Ġreg ret
Ġprep are
her o
eor ge
Ġli ves
Ġpu p
Ġr ac
id ay
Ġsuper hero
Ġw ine
in ce
Ġso cks
chan ic
Ġpan ic
Ġminer al
Ġput ting
uc ture
Ġstick y
ol og
Ġstr ucture
Ġhop ing
ĠBu bbles
Ġapp l
Y uck
Ġbe g
Ġsh one
ĠD ave
. .
ic er
Ġme chanic
Ġmyster y
Ġap olog
Ġdelight ed
Ġf re
Ġle ak
Ġho l
Ġrain ed
Ġste el
ugg age
Ġhar b
Ġcar ed
Ġproud ly
Ġl uggage
Ġshiver ing
Ġp ort
Ġhol iday
N ext
Ġe vent
Ġcolour ful
Ġkind s
Y ay
Ġb erry
Ġsoft ly
Ġcount ry
Ġbark s
ĠL ee
Gra ndma
ĠW ould
ĠN ext
Ġgrab s
Ġremind ed
Ġthank s
Ġshould er
W ill
Ġcher ry
Q u
Ġme owed
em ent
Ġd are
ĠP at
ĠB ow
Ġharb or
Ġt ip
Ġb end
app ing
ĠFred dy
Ġimpress ed
im ed
Ġs udden
Ġchick ens
cu ss
Ġbright er
Ġgigg le
Ġcla pping
Ġun h
ĠE nd
Ġplan es
B uddy
Ġth umb
Ġran ch
Ġrest ore
Ġhor ses
Ġweap on
Ġdis cuss
Ġco pper
Ġbre at
ick y
ĠJ azz
ĠS peedy
Ġpray ed
Ġexam ine
Ġmen u
ar i
ĠZ oomy
s ity
ĠM ike
Ġsun r
as on
au d
ĠU n
Ġcou rage
Ġfre sh
Ġfeel ings
ĠK iki
ĠR u
le x
Ġr ush
Ġpus hes
Ġe qu
ĠF l
Ġent er
Ġprov ide
Ġs igh
ĠE llie
Ġr ow
c er
Ġstre ng
Ġsuff er
o e
w ards
co nd
er o
Ġspray ed
Ġtrust ed
Em ma
Ġ x
Ġbump ed
Ġmass age
Ġsunr ise
Ġal ive
Ġunh appy
Ġfl ies
Ġnet work
Ġstreng th
ig i
Ġkeep ing
Ġse cond
c ast
y ear
Ġsome where
Ġpar ts
Ġsplas hing
Ġstar ting
Ġch irp
ac ked
Ġmat ches
Ġthrow ing
Ġlet ting
Ġsmell s
ĠHel p
Ġappl aud
he art
Ġst y
Ġsand cast
Ġcast les
arl ie
Ġcross ed
Ġyaw ned
Ġgre edy
b les
Ġhe at
Ġen er
ĠO r
m en
Ġsk ill
Ġdrop s
Ġm ention
Ġexplor ed
ĠT ed
Ġeat en
Ġbreak s
Ġshr ugged
Ġle ather
A ll
Ġcont ent
ri age
Ġkne el
Ġfree ze
ht er
A nn
ĠM andy
Ġlaug hter
Ġpun ish
Ġche cked
Al ice
Ġsc ore
M ark
Ġuniver se
Ġstu d
Ġfl ood
Ġrain ing
Ġroom s
Ġrabbit s
Ġclaw s
Ġex pect
ip ment
Ġequ ipment
ĠH oppy
ĠS que
Ġsquee zed
Ġpo ison
Ġimag ination
Ġsco ld
er c
Ġhis t
Ġv ac
Ġjog ged
Ġsn ugg
Ġhead s
Ġsweet heart
Ġpig s
Dad dy
Ġt ide
Ġw re
Ġd em
Ġhist ory
er ation
Re ady
Ġsett le
ĠS oph
que st
Ġbean s
Ġmy self
Ġmin ute
Ġn avy
ĠL illy
Ġfl apped
Ġwr iting
Ġboun cing
Ġthrow s
Ġn ation
Ġre quest
Ġoff er
Ġdis hes
Ġblow ing
m are
Ġcall s
Ġbu zz
Ġprun e
Ġp ur
Ġto e
Ġbelie ved
Ġcand les
Ġstom ach
Ġdem and
ott en
Ġmar riage
i ally
qu ake
Ġcoat s
Ġchee k
Ġex erc
g es
Ġb aking
in king
Ġpa id
Ġpir ates
Ġs ir
Ġbad ly
Ġpl aced
Ġwar n
Ġearth quake
Ġspark led
is ty
Ġhear ts
ĠG igi
Ġnight mare
ĠBlue y
Ġignor ed
Ġscr atch
L isa
Ġnew s
ĠE lly
Ġhop es
s pec
Ġy ucky
Ġobser ve
m ble
Ġener gy
Ġwre ck
spec ially
Ġtra cks
Be fore
ĠCo co
Ġsc oop
Ġcra sh
Ġhill s
Ġshop keeper
Ġtre mble
Ġgi ven
ĠU nder
Ġped al
ĠL ucky
Ġbear s
Ġsnow ball
Ġstrawber ries
ĠSnow y
Ġsp ort
Ġsandcast le
Ġbeaut y
M imi
Ġeas ily
Ġe specially
Ġb other
Ġinv it
Ġburn ed
Ġ ing
if i
ĠP enny
we en
Ġperm it
Ġvac ation
Ġspot s
Ġbet ween
W elcome
Ġc ape
Ġv room
Ġwhist led
red ient
ĠFo x
Ġing redient
ĠM ummy
Ġins isted
Ġse w
y th
Ġt ug
Ġp alm
ĠS ee
ang es
Ġboun cy
Ġplan ned
Ġexp er
yth m
ĠS k
Ġso ak
Ġgrowl ed
Ġl uck
Ġg az
Ġwe ight
Ġop eration
S h
Ġwa ving
Ġbra in
ĠOw l
ĠH ave
Ġflo ated
Ġf urt
Ġtw isted
ĠSh aring
Ġsl ap
la imed
Ġmail man
Ġinclu de
Ġafter n
Ġcon f
ĠAnn ie
Ġprun es
h ouse
ĠS m
Ġaftern oon
Ġto ur
Ġcom f
em ember
Ġsaf ari
Ġstri ke
ec ting
Ġmar bles
Ġwhisp er
Ġfurt her
J enny
Ġent ered
Ġuniver sity
Ġingredient s
Ġexc laimed
ĠZ ara
ĠSque aky
Ġup stairs
Ġap art
ĠB ee
Ġrh ythm
Ġencou rage
Ġincre ase
re at
Ġno body
ree ze
Ġmove s
Ġz igzag
Ġwag s
Ġsty le
n esday
ed nesday
und ay
Ġintrod uce
F red
Ġstrugg le
ĠS unday
Ġwin ning
Ġchew ed
Ġd aisy
bb ing
iz es
Ġfollow ing
ĠJohn ny
u esday
Ġh on
ap a
Ġpull ing
ĠGo d
Ġhe el
Ġbel ow
Ġscr at
Ġd igg
Ġp ad
Ġfollow s
res ses
W ith
t ain
ĠL ola
Ġve l
Ġsol ved
Ġdigg ing
W oof
ĠWhen ever
l ook
Ġwas hing
ar nt
Ġle arnt
ĠW ednesday
ĠGra ce
Ġrac ing
Ġclose ly
Ġvel vet
Ġteach ing
Ġfold ed
Ġtw isty
Ġshout ing
he st
Ġag re
ff ic
Ġplan ted
ill ie
ĠD og
Ġwaff les
ĠT uesday
Ġst air
Ġback pack
ĠJoe y
Ġrecogn ize
Ġwis dom
Every one
Ġlem ons
ĠWh o
Ġcreature s
c ery
Ġgro cery
Ġtra ffic
Ġland scape
xy gen
Ġpo ppy
dd y
Ġunder ground
ĠP aul
ĠI s
ĠG ood
ĠF ifi
or ies
ra ged
Ġworm s
Ġvan ished
ĠA lex
Ġgif ts
h ood
ĠFin ny
Ġs imp
Ġj azz
Ġm ama
Ġdress ed
Ġwar ning
Ġolive s
L e
Ġwor th
itten s
Ġsnugg led
Ġim age
Ġqu ite
Ġquiet ly
Ġsail ing
Ġbri cks
Ġman age
ĠG eorge
Ġtomato es
Ġb le
B ella
Ġd ried
Ġatt ention
r ight
Ġbu ried
Ġwag ging
Ġshin ed
B ecause
Ġwe b
ĠW ally
Ġhurt ing
en ry
Ġspr ink
Ġpeanut s
Ġblueber ry
Ġd resses
ĠR o
Ġpri ce
ĠBoun ce
B l
uc t
Ġide as
look ing
Ġpa used
Ġdeep er
ipp ing
ĠT oto
Ġex it
ĠEvery thing
Ġexerc ise
The se
op s
Ġcr ow
N ot
R emy
Ġp itch
Ġeager ly
Ġlemon ade
Ġneighb our
Ġran g
Ġseat s
re c
m m
Ġbl ink
Ġcoll ected
Ġpuzz les
is ses
Ġin st
Ġli cks
or al
Ġk isses
et ch
Ġbl ood
Ġsit s
Ġw ob
Ġbal an
Ġfirework s
Ġo h
Ġplay s
ec ture
Ġsor ts
Ġsn ail
Ġcatch ing
ĠSp ark
Ġall ow
Ġmu ddy
Ġcount er
To day
ĠP inky
Ġur ge
Ġl ecture
uc ked
Ġacorn s
s ed
Ġmem ories
Ġpillow s
Ġre aches
Ġsp ike
Ġdestroy ed
ĠâĢ ĵ
Ġm ice
ĠS u
a h
Ġwander ed
Ġs i
Ġsee ing
Ġblanket s
Ġcap tain
g ie
Ġfall en
Ġmar ried
ĠCh arlie
ĠDan ny
ore s
Ġnow here
Ġs izes
ĠFin n
ĠE ventually
Ġtreasure s
Ġskill s
Ġb ur
Ġsn apped
Ġre lease
Ġpin ched
Ġhad n
ip s
Ġbreat he
Ġtre mb
Ġcelebr ated
Ġgaz ed
i ved
un ately
st ers
e ster
p ted
Ġb ones
Ġl ung
ĠH arry
Ġor anges
Ġjog ging
Ġcake s
Ġslid ing
Ġd uring
ĠM ittens
Ġsign s
Ġstamp s
Ġmem ory
ester day
Ġencou raged
Ġher s
ĠL iz
Ġfl ap
Ġgold en
i ppy
Ġwor se
Ġwater ed
Ġvis ited
Ġpet als
rec i
or ted
Ġst itch
Ġvan ish
Ġacce pted
u ry
ĠS andy
Ġsh ot
Ġdisag ree
ĠSoph ie
n ce
Ġch ores
Ġapp reci
ĠR os
Ġunl ocked
S urpr
u x
Ġo xygen
Ġhit s
Ġba ked
Ġclimb s
Ġ Qu
Ġbr ings
Ġru in
Ġpun ished
Ġto es
is ing
Ġprin ts
Ġwin ner
el vet
Ġbed s
Ġforg otten
Ġpaint s
Ġwelc omed
Ġrece ive
ss ible
Ġpret t
Ġscold ed
v a
um ble
Ġbow ed
Ġs ince
Ġp ies
ĠP apa
Ġtwir led
Ġbit es
ĠFr oggy
Ġgl o
Ġur ged
c cer
ch oo
Ġra ised
Ġeas ier
J en
Ġfr o
Ġz ipped
Ġelephant s
Ġstuff ed
Ġinvit ation
r ing
ag gie
ĠB aby
d o
Ġble ed
Ġpup il
Ġso ccer
up s
Ġdiffere nce
Ġcre ated
Ġres p
Ġpet s
r in
ĠB oo
Ġby e
Ġguess ed
s it
Ġk itty
Ġshould n
Ġprin ter
Ġspoon s
Ġfa sh
ict ory
Y um
Ġunderstand ing
Ġjewel s
Ġscatter ed
Ġatt ached
Ġstra ight
Ġcollect ion
ĠT illy
ĠT una
Ġpotato es
Ġexper ience
Ġac ted
M oral
Ġmarch ing
Ġpresent s
Ġl ux
Ġbre aking
Ġsimp le
Ġfash ion
r r
Ġto ng
Ġpe ars
ct ion
Ġapp ear
Ġglo ves
' ve
Bob by
Ġking dom
Ġis n
Ġse ason
av id
i ers
k ins
ent s
Ġbr us
Ġtw ink
Ġgr in
Surpr ise
ĠRu by
Ġme ow
fort unately
c us
ĠR ock
Ġour s
Ġsor ting
ic ing
ap ed
Ġto re
Ġweep ing
ĠV elvet
Good bye
Ġdisag reed
ch ie
ake s
ĠE ach
ĠBe fore
Ġfam il
Ġkick ing
Ġrece ived
an ny
Ġcra s
Ġflo ating
Ġcut ting
Ġmuff ins
O k
Ġprin ted
Me ow
e ath
Ġtra pped
d ing
Ġl ined
Ġsk ipping
Ġsur round
Ġte asing
Ġvoice s
Ġwhist ling
omed ay
ĠSm ith
Ġdrink s
Ġsold iers
Ġb ang
un e
Ġcartoon s
ĠMar ia
is hing
Ġv ictory
Ġmus cles
Ġring ing
Ġmeas ured
Ġlux ury
Ġd ared
Ġs ip
Ġn one
ĠK ing
Ġfield s
Ġhur ried
is hes
Ġgirl s
Ġmel ted
ĠL izzy
Ġs omeday
Ġwe st
Ġe ast
Ġsp it
med i
Ġmention ed
medi ately
Ġto night
ad ed
ĠIt s
Ġsl ice
ĠP ip
Ġfire f
Ġsell ing
w alk
Ġcol ours
Bl ue
Ġfis hing
b oo
Ġkn own
um es
Ġfl at
Ġwat ches
ĠS low
Ġpattern s
ĠH ope
Ġal right
Ġhead ed
Ġside walk
Ġrelax ed
ĠRos ie
ve st
Ġdr inking
M andy
ĠM ay
Ġtra ve
Ġz ero
Ġem er
! '
Ġb reeze
et y
Ġshe d
Ġpe aches
ĠA m
Ġremain ed
Ġtong ue
sh ip
Ġmouth s
Ġcost umes
Ġlip s
Ġbeg ged
ĠB oth
Ġsor ted
Ġshadow s
Ġwa ist
Ġcont est
ĠK ate
Ġlady b
Ġwork s
C at
ĠT ony
Ġbr id
Ġf ed
ut ter
Ġapp ro
Ġp ra
Ġoff icer
os ed
e ep
ak er
Ġlet s
Ġmix ing
Ġdecor ations
ĠThe se
an na
ĠM illie
H appy
Ġcu b
Ġscream s
Ġset ting
Re ally
Ġhig hest
Ġrest ed
Ġinst r
Ġbrid ges
Ġsl apped
Ġnail s
Ġroot s
Ġwigg le
ĠSome one
Ġsett led
t her
Ġsh ock
Ġgr ant
igg ly
Ġsne ak
Ġs ix
iss ion
ĠFo llow
Ġyou th
Ġmoment s
ab ies
Ġstr ang
ĠSt e
o ved
Ġf etch
Mom o
Ġperfect ly
Ġperm ission
Ġla id
Ġstr o
Ġag o
or ed
Ġe sc
Ġri pped
Ġtwig s
Ġl ines
Ġplay time
ĠL ater
Ġrest ing
Ġcr unch
Ġsaf ety
Ġord ered
Ġreveal ed
Ġamaz ement
ĠCl ara
Ġop in
Ġcon es
Ġscrat ched
Ġb abies
Ġin vest
ĠJ ames
d ed
Ġwr it
Ġwait s
Ġsucceed ed
z ing
Ġt ext
Ġstrang ers
Ġinvest ig
Ġli ck
Ġladyb ug
B u
id s
H a
Ġim mediately
Ġsteal ing
ĠZ igzag
Ġherb s
Ġmeas uring
Ġtext ure
" ,
Ġin ch
Ġt ucked
ĠJ ul
pl ash
Ġfire men
Ġsupp osed
Ġlead er
ĠFr og
Ġbring ing
Ġadm ir
Le o
B oo
id es
Ġland s
Ġmelt ing
Ġa chie
Ġres ult
Ġser ved
And y
Ġtheir s
ĠSu zy
Ġbrus hes
Ġinvestig ate
s ing
ĠM o
Ġbro om
Ġimport ance
ĠCh icky
ĠBoun cy
Ġstud ied
Ġtremb ling
B ird
W ould
ĠB o
Ġpe arl
p lease
Ġw iz
Ġhe sit
os ity
b ers
Ġgu y
Ġcraw ling
Ġth rill
ĠB ug
Ġv et
ĠUn cle
Ġkneel ed
Ġit em
E lla
Ġare a
Ġwood en
Ġmat ched
Ġkeep s
Ġchew ing
Ġdinosaur s
Ġmon sters
irr ing
Ġbrave ly
Ġticket s
all en
Ġso re
ist en
Ġpile s
Ġqu ack
m other
Ġn apping
Ġbe amed
Ġch allen
ĠN ot
Ġshoot ing
M mm
a ved
Ġd ire
ĠH enry
Ġkey s
Ġmark s
in o
Ġdad s
Ġturn ing
ĠD avid
ant ly
iz ing
Ġburn ing
he llo
Ġw ink
Ġsil ence
Ġwiz ard
Ġstr ings
Ġpe el
Ġsho pping
Ġmot ion
Ġha ted
Ġhe n
Ġfr ost
Ġtick le
Ġscoop ed
Ġpra ised
Ġs ings
Ġr ul
ĠW iggly
Ġst irring
ĠA n
Ġsister s
Ġansw ers
Ġspace ship
gen cy
Ġeat s
is dom
Ġg ust
ĠM illy
ĠH appy
Ġwonder s
T r
ir ts
ĠH o
Ġfood s
Ġwarm th
ĠO ut
Ġfamil ies
Ġfl av
Ġtrip s
P eter
Ġso aked
Ġped als
Ġcudd led
Ġesc aped
' .
Ġtw in
em bers
Ġrem embers
Ġglow ed
ĠPipp a
Ġm ister
ĠF irst
Ġdraw s
Ġsecret s
Ġdisturb ed
Ġd ot
Ġth reat
Ġkn elt
ĠRock y
U n
n ie
Ġso ared
!" ,
l s
l oe
ĠSomet hing
ĠS qu
Ġtouch ing
Ġrecogn ized
ĠR abbit
Ġpu pp
Ġrid es
Ġsi ren
ĠSlow ly
C l
ke lly
og o
Ġappro ached
om as
am ie
unn ies
Ġbleed ing
Ġcrunch y
Ġfrost ing
Ġwant ing
ĠD r
Ġcur led
Ġappreci ate
T w
Ġcoll ecting
ĠRob by
S omet
a les
ĠB ree
ĠG r
Ġroad s
Ġbuzz ing
E ventually
Ġpo king
Ġwrit es
J ake
en a
Ġrad ishes
f ied
h ind
Ġb oo
Ġb unnies
Ġche f
Sam my
Ġstudy ing
ĠFr ank
Ġchirp ed
ĠSk y
u es
Ġpr ide
Ġtast es
ĠPe pper
Ġsne aky
Ġgre y
Ġspark le
Ġact ing
Ġneighbor hood
Ġbe at
Ġno on
Ġdecid es
Ġown ed
ĠSt itch
Em ily
Ġemer gency
Ġcomp le
R emember
r s
Ġa we
ig gy
Ġzoom ing
Ġhorn s
Ġn icer
ĠH op
Ġsc aring
oy s
Ġagre ement
Ġsprink les
Ġthrill ed
a ct
Ġf ut
ĠSt ar
Ġhero es
Ġgrin ned
Ġfut ure
. '
Ġh i
ĠM e
ĠA b
ĠC he
Ġtri cked
Ġph ot
Ġspark ling
ĠSt op
Ġs ides
Ġbeh aved
Ġrecord ed
Ġwe ighed
Ġany time
Ġbloom ed
Ġspend ing
O llie
Ġloo se
Ġlo ving
ĠA unt
ur ry
ĠG reen
Ġnap s
Ġstri pes
Ġgrand mother
ir a
Ġo be
ust y
Ġpol ished
ĠS kelly
id ed
Ġdog gy
Ġdown stairs
Ġpot s
Ġpre c
Ġstrugg led
ĠL ike
Ġgood night
Ġrul er
Ġsl im
Ġwork er
Ġto ss
Ġp ause
all ow
ĠBe ep
Ġwhat ever
Ġpo ssible
Ġkind ly
Ġswim s
Ġprep ared
Ġhon k
Ġsurround ed
O r
Ġdecor ated
Ġcras hed
H ave
Ġt ugged
Ġhapp iest
riend s
ĠAl ways
Ġpebb les
Ġsigh s
Ġbalan cing
l ier
om ing
Ġbe lly
ĠW isdom
Ġrock ing
ĠBird ie
Ġapolog ize
Y ummy
an a
Ġbe side
ic a
Ġstay ing
Ġopin ion
Ġobe y
Ġ Once
Ġre le
ĠBl ink
Ġmitten s
Ġslim y
S usie
ĠG ogo
Ġplanet s
Ġrepe ated
Ġcomf y
ĠM at
Ġyell ing
Ġbuild ings
Ġprot ected
Ġphot os
ĠD id
Ġstr uck
joy ed
Ġru bbing
Ġcir cus
Ġl imes
Ġplay room
Ġsh irts
Ġover joyed
Ġribb ons
Ġadmir ing
Ġload ed
Ġcomf orted
E x
Ġe ff
Ġex pected
ĠC ar
Ġfold ing
Ġclap s
Ġsne aked
S p
Ġst ing
Ġsaus ages
Somet imes
Ġcat ches
Ġour selves
Ġair pl
Ġteac hes
Ġmach ines
Ġprec ious
i b
ay s
Ġy esterday
ĠM aggie
ĠD ino
Ġspray ing
o h
ĠS plash
Ġwo of
Ġste ep
Ġear lier
Ġstrugg ling
Ġpr op
Ġcuri osity
Ġresp ons
A h
u d
w h
Ġcontin ue
Ġpart ies
Ġhis sed
ĠA va
Ġneighb ors
Ġsnowball s
F irst
ĠJ ess
Ġtall est
ache l
Ġapolog ized
Ġe ight
Ġhug ging
Ġhard ly
Ġopen ing
Ġdrag ons
Ġspid ers
Ġgain ed
Ġcont ain
Ġpoem s
Ġpur red
u se
Ġact ions
z en
Ġl ily
Ġli ed
ĠW ater
Ġsweet ies
R o
pp ers
Ġst are
Ġfa sc
Ġsmile y
Ġbott les
ĠZ oe
ent y
Ġgir aff
ĠJ e
Ġkeep er
ĠR ay
Ġsplas hes
Ġchase s
Ġdisco very
Ġgiraff es
Ġg aze
Ġbe ad
Ġbr ushed
Wh iskers
Ġsees aw
Ġpaint ings
ĠSte ve
d am
ĠA bby
ĠR emember
Ġeff ort
Ġcomp any
h a
Ġw id
Ġpocket s
Ġref res
Ġcomple ted
Ġcut s
Ġdri ves
Ġpour ing
Ġzoo keeper
Ġpengu ins
Ġrele ased
D uring
Ġwhere ver
A choo
D ucky
Ġar gu
Ġpol ishing
Ġfro zen
ig ail
Ġcle aring
Ġargu ing
R ob
u ke
Ġlearn s
Ġgl itter
Ġcr umb
Ġspark les
Ġknight s
Ġarg ued
Ġcudd le
Ġapplaud ed
l er
Ġbo om
Ġro cked
Ġsaf er
Ġpastel s
ind y
Ġfl utter
Ġtail s
Ġseem s
.. .
z es
Ġ X
Ġro aring
Ġte ased
Thank s
Ġrep ly
Ġfasc in
Ġt im
Ġc aut
Ġman e
Ġpencil s
Ġhelmet s
Ġr ings
Ġso aring
Ġan n
Ġpe as
Ġpretend s
Ġcrab s
Ġshiver ed
Ġsmall est
Ġdes er
it ies
Ġbe ard
ĠSp ring
Ġwigg led
Ġrem oved
ĠLe ave
aw s
Ġchallen ge
Ġprop er
Ġvisit ing
Ġb ank
Ġforg i
Ġorgan izing
t en
at ie
Ġpe ered
Ġbucket s
Ġgather ing
Ġmatch ing
Ġdemand ed
Ġpad d
R ex
ĠP ut
âĢĿ .
Ġflag s
Ġc ough
Ġla p
Ġwonder ing
Ġpet ted
Ġdi ving
U h
i bb
Ġtal ent
ĠK eep
i en
Ġd ipped
uck ily
Ġsun light
Ġsit u
Ġlog s
Ġscr u
Ġaw ake
Ġstick ing
Ġdark er
Ġroll s
Ġpat ience
ĠBe ing
ĠHo ot
a is
Ġw ins
or ds
Ġuse s
Ġcra cked
Ġpow ers
P oppy
S illy
Ġth ird
ĠL ove
Ġgot ten
Ġdrag ged
Ġsad ness
ĠJ an
Ġpe ppers
Ġact ually
Ġmov ies
Ġpro ject
Ġbeg in
Ġgo als
Ġeag le
Ġmis ses
Ġfe ars
Ġun ited
Ġreal ize
Ġprot ecting
Ġgun s
Ġgem s
j am
ed ding
Ġm a
an ted
Ġarri ve
anna h
um m
Ġstretch ing
Ġtask s
Ġd ied
Ġout do
ĠBrown ie
Ġweek s
Ġbed time
Ġri p
Ġagre es
Ġbead s
F r
L una
ĠL ou
ĠW atch
ĠJ u
Ġdolph ins
Ġtrave led
he e
us an
Ġper ched
Ġrub s
Ġprett iest
Ġitem s
Ġb unch
Ġon wards
Ġpar ked
Ġbowl s
ĠQu ick
Ġwere n
ue st
ĠF ish
Ġpract icing
ĠSk ip
ĠSqu irrel
Ġac com
St ay
Ġcurtain s
ĠB ecause
as hed
Ġminer als
Ġairpl ane
s ses
Ġw ound
Ġw edding
Ġkit es
Ġvill ag
low ers
Ġcur ly
W atch
Ġstar ing
ĠP rin
Ġste ady
John ny
ĠZ ero
Ġquarrel ing
Ġdust y
Ġchirp ing
D ave
in ing
Ġshr ug
G eorge
Ġwas ted
Ġhome work
Ġsat is
ĠBe hind
Ġmountain s
Gra ndpa
D oggy
Ġwho se
ĠTh omas
Ġwr ist
Ġscream ing
Ġpray er
Ġaccom pl
T ina
Ġd am
Ġexam ined
Ġachie ve
B unny
T iny
Ġ ĠĊ
Ġg uest
se ek
ĠJ oy
ĠCh loe
Ġhelp ers
ic orn
Ġcan s
ĠD are
Ġgr anted
Ġrepl aced
Ġcand ies
Ġswe at
Ġprett ier
Ġinstr uct
ĠJul ie
B ad
Ġd ent
ĠJ amie
ĠO ur
Ġpan s
Ġvillag ers
ĠM oo
Ġun icorn
ink le
ĠR achel
Ġfair ies
ar th
id o
ir m
Ġse as
Ġro ses
Ġsl ed
ĠEvery day
Ġpast ries
Ġoutdo ors
F o
er n
es ome
ag ull
Ġch ips
Ġjo king
Ġcont ro
Ġfiref ight
jam as
d ie
le y
Ġdec ision
Ġlisten s
Ġrespons ible
J ames
T ime
ĠR olly
Ġpat ted
Ġaw esome
Ġrequest ed
n joy
ĠF riends
Ġsnake s
Ġpan c
Ġpack ing
Ġsnee zing
Ġremind er
Ġref use
Ġornament s
ĠO lly
Ġcre pt
Ġrainbow s
Ġdes ert
Ġcomplain ed
Ġconf l
Ġfa ult
Ġsl am
ĠC ra
Ġcop y
Ġvide os
b l
Ġf ara
ĠB ark
Ben ny
av i
Ġcre ation
oop ed
Ġpump kins
Ġscru bbed
Ġfara way
l ay
n eath
Ġsp ong
Ġpa jamas
ĠJo sh
Ġm es
Ġcaut ious
Ġconfl ict
n ies
ay la
Ġst umble
Ġpoin ty
Ġsight s
Ġfascin ated
b ie
Ġb are
ĠS ure
ĠW elcome
ast er
Ġus ual
Ġinstruct ions
u ly
Ġc ause
Ġex act
Ġreach ing
a a
ĠS orry
Ġne ither
ind a
Ġse agull
Ġus ually
Ġprom ises
Ġpass ing
Ġinv iting
Ġfork s
Gra ce
g ers
ĠB y
ĠB ye
Ġact iv
Ġcomplain ing
H old
Ġtr uly
Ġsto le
Ġclose s
Ġresc ued
Ġintrod uc
Ġspong e
f l
ĠS ad
Ġbec oming
Ġnap kins
ĠHow ever
Ġwob bled
Tr ue
P aul
Ġc ent
Ġevery day
Ġpen nies
Ġtowel s
Ġpolice man
Ġmask s
Ġconf ident
E w
S ome
n ers
an es
Ġhop s
Ġben eath
Ġsol ut
Ġdest ination
Ġtwir l
Ġbalan ced
Ġguy s
Ġcrumb s
M iss
Ġd ar
Ġfill ing
T oby
Ġbra nd
Ġ 1
Ġt une
Ġp out
Ġread s
Ġsupp lies
Ġlollipop s
Ġtim er
P ete
Ġf irm
Ġv ent
Ġinclu ded
ĠQu ack
d ies
Ġst ern
Ġyour selves
Ġstart led
Ġpatient ly
Ġgigg ling
Ġteam work
Ġadd ing
Ġload ing
ĠRo ver
ĠZ iggy
Ġcheer ing
Ġheal ed
Ann ie
Ġneighbour hood
Ġcontro l
e ah
y ou
Ġh itting
Ġshe lves
Ġgl asses
Ġru le
Ġtable s
Ġsnow men
uct antly
Ġsitu ation
ĠC udd
Ġfar ther
Ġvehic les
Ġobser ved
Ġins ist
ĠAb igail
D og
L ola
Ġhe av
ĠS un
il o
ĠA lly
S oph
Ġb aker
ĠS w
ĠB eth
Ġch uck
Ġtr aded
Ġblow s
Ġwire s
Ġruin ing
M ar
ar ter
ĠW ant
Ġv owed
Ġunder neath
Ġcom m
ĠG et
Ġmiss ion
Ġdeliver ed
Ġexact ly
Ġ Q
ĠF ido
ĠD izzy
Ġwind y
Ġqu acked
ĠCh r
Ġbatter ies
Ġgrowl ing
F ine
Ġsm arter
ue en
Ġsw ooped
ĠP aws
Ġrem ote
Ġwin ked
ĠCat ty
Ġknock s
Ġpad dle
Ġdot s
ais ies
or a
Ġth orn
ĠA nt
Ġfa ced
ĠE arth
Ġshould ers
Ġremember ing
Ġsque al
Un fortunately
A n
O ur
Ġd aisies
ĠP o
Ġbra very
ĠSn ap
la ire
G reat
Ġth ro
Ġbeh aving
Ġpen s
Jo ey
ĠTw o
Ġimpro ved
cu se
Ġthro at
P olly
g o
Ġunt ie
Ġbar s
ang ing
Ġspe aking
ĠSt ay
ĠCudd les
M illy
k y
ac ob
Ġdi ved
Ġrocket s
Ġclown s
Ġbloom ing
Ġwarn ings
ĠWh ist
und red
Ġarrow s
Ġcobweb s
S andy
e ed
s m
Ġsc ales
Ġgre et
bb ie
Ex cuse
ĠS usan
Ġr isk
ĠW oo
ĠE njoy
ĠK ids
Ġstay s
ĠR ich
Ġpray ing
Ch irpy
Ch arlie
Ġfro ze
Ġno ses
Ġscar ves
Ġscrat ches
M ike
ĠM ad
ĠJ ones
Ġrel uctantly
Ġwander ing
ĠFo xy
Ġdire ction
ĠJe ff
Ġbare ly
O ops
R u
Ġh undred
ĠH ippy
ck y
th ough
Ġsnow fl
Ġbit ing
ang led
Ġav o
Ġsuperhero es
R un
ĠB all
ĠJ illy
Ġtra ctor
Ġyell s
Ġbase ment
Ġgrowl s
.. ."
Ġc ous
Ġbad ge
Ġwr itten
Ġwork ers
Ġexplore rs
Ġent ire
Ġkick s
Ġdrum s
Ġchoice s
ĠBug gy
el ia
ul ts
ĠF or
ĠJ essie
Ġun f
Ġca used
Ġdiscover ing
Ġlean ing
Y eah
Ġun p
ĠTh ose
Ġcreat ing
ol ine
Ġrecord ing
Bu zz
Ġrefres hed
D ays
ĠM ouse
Ġch at
Ġown ers
Ġpige ons
Ġperform ed
ĠCo pper
in t
ĠT ree
Ġp ec
Ġkne es
ĠP r
Ġjo ked
Ġlight er
Ġdes p
Ġwip es
Ġpadd led
Ġa st
Ġon ions
Ġwis hing
Sh h
ĠJess ica
Ġsatis fied
c oon
Ġ Yes
Ġyou nger
ĠM on
ĠM el
Ġso bbed
Ġle ast
Ġch oo
Ġun s
Ġlibr arian
Ġchuck led
H enry
c her
Ġt ies
it ched
st y
ĠB op
ant a
Ġpig gy
ĠN ina
? '
s on
Ġb umpy
am b
ĠD uck
Ġrace s
Ġtick led
Ġswan s
Ġtwir ling
rr r
Ro ar
M aggie
o dy
o ey
Ġro pes
Ġknow led
ust ed
Ġhid es
ĠAnn e
Ġrelie f
Ġpay ing
Ġgroup s
Ġguess ing
Ġsquare s
Ġtriang les
Ġjacket s
ĠPrin cess
Ġknowled ge
h o
Ġrest ored
Ġdance s
Ġinsect s
ĠUn fortunately
Ġcrow d
Ġbur st
Ġintroduc ed
Ġsolut ion
Ġse ven
Ġsc ra
izz ie
Ġcomplet ely
P e
S n
t uce
ĠS c
ad os
Ġlet tuce
Ġblock ing
Ġslow er
Ġcover s
ugg les
Ġitch y
Ġn ine
ĠM ix
Ġsc ur
Ġjob s
ence s
Be ep
Ġsil ent
Ġprov ided
Ġpur r
Ġchef s
Ġvent ured
ĠQ ueen
t le
it ely
ĠL uke
Ġsk unk
ĠG ina
Ġdoctor s
Ġent r
Ġlead ing
Ġtwink ling
ĠMat t
l en
Ġt apped
ĠH enny
Ġpl enty
Ġwor ries
Ġex ha
Ġtoast er
Ġtunnel s
Ġcheek s
F or
et sy
ĠW ink
Ġsw ords
Ġmus cle
Ġwear s
Ġseek er
Ġinterest ed
Ġcelebr ating
Ġref le
se qu
ind r
Ġre ason
Ġcl ick
ĠJ ay
Ġv ines
au ra
co at
Ġavoc ados
ĠSoph ia
Ġdar ling
o ssible
v in
Ġhow ever
Ġcon sequ
ĠJen na
Ġcamp ing
Ġcudd ly
Ġtip to
Ġpupp et
Ġaccompl ish
Z oom
f it
o ke
Ġf reed
ĠL ena
Th ose
Ġneed les
Ġrain coat
air y
Ġra indr
ĠâĢ ĺ
Fo llow
Ġscur ried
b and
ĠA dam
ĠR on
Ġtire s
Ġcompetit ion
Ġproper ly
Ġslam med
Ġcautious ly
?" ,
ĠP up
bo at
Ġmin ts
Ġpart ic
Ġsal ty
Ġwrap s
ĠTw inkle
Ġunp acked
O ut
r ink
Ġout fit
ĠD ot
Ġgra bbing
Ġimp ossible
Ġprince sses
Ġspread ing
Ġpanc akes
Ġconsequ ences
T eddy
Ġm er
Ġstar fish
ep t
Ġbu ses
ĠSn uggles
Ġbump s
Ġsurf ace
Ġthu d
Ġtrave ll
Ġs way
Ġb acked
ver s
Ġal ien
Ġtw ice
Ġdoll house
Ġcub es
Ġpec ked
Ġexha usted
B ig
ĠJ on
ab el
Ġsw ept
Ġhon ked
L isten
Ġplay house
ro sty
Ġfore head
Ġri pe
Ġfig ured
Ġsew ed
Ġsi bl
ĠNot hing
Ġentr ance
Ġsibl ings
it ches
ĠS anta
am my
Ġr otten
Ġle ap
ild a
ĠK atie
Ġde al
Ġthr own
Ġdark ness
Ġbuzz ed
Ġdeser ve
Ġt angled
Ġl amb
Ġp ins
ĠL ion
Ġlo sing
Ġch anging
Ġcolor ed
Ġrain y
Ġbow s
Ġpartic ular
D anny
Ġs ense
ĠT ry
Ġc ash
st ick
ĠB irthday
ĠW oof
Ġfe ver
ath y
Ġforget s
Ġrot ting
Ġstom ped
Ġflav or
Ġsqueal ed
Ġcous in
R ose
Ġst ool
Ġbeh avi
Ġdecor ating
Ġstud ents
i ar
Ġw ow
Ġst ung
ĠL aser
ĠM oon
Ġme als
Ġfl ames
Ġfe ast
Ġbu dge
Ġmon th
ĠO l
Ġsign ed
Ġhesit ated
Tw eet
Ġh us
it i
ou ch
Ġst ain
Ġk ings
Ġbuy ing
Ġmushroom s
Ġfilm s
Ġsymbol s
Ġincre ased
Ġsuffer ing
Ġpupp ies
H arry
Ġo pp
ĠD ara
Ġhid er
Ġtrick y
How ever
ĠGood bye
Ġpupil s
L uckily
u zz
Ġ icing
Ġg ri
ĠL arry
Ġtr amp
Ġprin ting
Ġslow ed
ĠY esterday
Ġtwink le
Ġdent ist
M ay
ĠL isten
Ġe arn
Ġbo dies
ag ic
ĠP am
ĠR ain
ĠDo do
Ġgrow s
Ġshop s
igg ie
Ġheav ier
Ġhus band
W hee
n o
p s
ĠB etsy
ĠM ira
Ġfa ct
ĠE l
ct ions
ĠP atch
Ġcre ations
br ush
Ġfeed ing
Ġnecklace s
Ġdeterm ination
Ġsepar ated
Ġwob b
Ġinstr um
Ġann oy
Ġtramp oline
Ġm ater
Ġhand ful
Ġwait er
Ġcount s
Ġshap ed
Ġmatter s
Ġtwist ing
Ġdesign ed
Ġmater ial
A lex
b ut
z ie
Ġplay ers
Ġag e
Ġfin s
Ġnest s
Ġlift s
Ġsniff s
Ġlung s
r ig
ĠT ara
ell e
ĠF rosty
Ġsn at
ĠTr ust
Ġfigure s
Ġreward ed
Ġgro cer
ĠSpark y
ĠBark y
u de
Ġst em
us ing
us hing
Ġsto len
Ġtalk s
Ġsweet s
Ġval ued
Ġloop s
ĠM ilo
Ġback ward
ust om
Ġcelebr ation
Ġfu zzy
Ġavo id
A m
L illy
P ipp
p en
Ġd en
ĠH annah
Ġunt ied
Ġbath s
Ġwip ing
Ġlif ting
Ġsuit case
ĠChe w
D an
J erry
u ppy
Ġc ustom
ive s
Ġdanc ers
ĠO ther
ĠN ana
Ġcalm ed
Ġsunf lowers
Ġencou rag
Soph ie
B ill
Ġg le
ing o
ri ous
ile s
Ġcurious ly
Ġpee king
ĠWhist le
Ġrefle ction
U nder
b ric
e al
im on
le ts
Ġfa bric
Ġfl apping
ee se
ĠOn ly
Ġprep aring
Ġuns ure
h i
p rin
Ġc ott
end y
Ġr ust
st ep
Ġne ct
Ġgl ued
ĠWith out
Ġgen ie
Ġpres ses
Ġborrow ed
ĠRo llie
Ġbur row
Ġbegin ning
Ġnect ar
L ulu
n e
v room
Ġsome body
Ġsing er
Ġmar ked
ĠBl oom
Ġimag es
Ġguest s
Ġcl ues
ĠD ee
âĢ Ķ
Ġcon n
Ġsail boat
Ġcrack ers
Ġscrew s
Ġforgi ving
Ġcash ier
rig ued
N ina
S unny
w k
Ġt y
Ġa ff
Ġb ak
Ġg eese
Ġran ger
ab by
ĠC laire
Ġdro pping
Ġcorn ers
Ġscoot ers
Ġlend ing
Ġdire ctions
Ġraindr ops
ĠS leep
Ġsp at
ĠC ara
Ġplan ning
Ġactiv ities
Ġgrocer ies
G et
ig ning
ter s
ret ch
ĠK ayla
Ġhear ing
Ġac he
Ġre pa
Ġtouc hes
Ġbrace lets
ĠRu dy
Ġsew ing
Ġtoss ed
Ġch op
Ġtight er
Ġzebra s
Mr s
Ġcent er
c l
c ope
Ġr usty
ĠM ic
Ġstrong est
Ġad ult
Ġwarm er
Ġsail ors
Ġcush ions
Ġtipto ed
C o
ĠT ake
im mer
id ing
Ġdo d
ĠC r
Ġste er
iv ity
Ġregret ted
Ġmes mer
M illie
Ġn ood
ĠL aura
itt ed
Ġsw ir
Ġpo ster
ĠDo ctor
Ġrob ber
Ġspark s
Ġind eed
Ġquarrel ed
ĠTweet ie
Ġinclu ding
Ġsuff ered
Cl ara
Ġaccomplish ment
Ġrepa ired
Ġsa n
ig ers
Ġtree house
ĠE le
ĠE ls
Ġfire s
ĠAs h
Ġque ens
Ġcreat ivity
Ġwra pping
Ġmark er
ĠN ick
Ġwhisp ers
Ġsurf ing
Ġblin king
Qu ick
Ġt iss
ĠT urtle
Ġc oop
Ġha wk
Ġbe am
Ġr ushing
ĠL inda
ĠJ acob
ie ce
Ġbl own
ara c
ĠZ oey
Ġpass en
Ġrec ipe
Ġforget ting
Ġma iled
ĠSad ly
Ġast ron
Ġsan k
Ġp uff
ĠH old
ĠB iggie
ill ed
Ġsc ored
em ma
Ġcow b
arm er
Ġimag ining
Ġlay ing
Ġlead s
Ġlabel s
Ġnightmare s
ibb it
Ġastron aut
B etty
P at
y es
Ġa imed
ĠT iti
ll e
ri ver
ĠC athy
Ġrobot s
ĠBe aky
Ġspike s
B aby
j o
Ġt ying
Ġfl ipped
Ġbl ocked
ish y
Ġch arac
Ġfar t
Ġangel s
ĠSnow man
Ġobject s
Ġpassport s
Ġsprink led
Ġstro ked
Ġfirefight ers
Ru by
Ġsnat ched
Ġencourag ing
Ġtiss ue
u zzy
Ġl ower
an s
Ġr ising
Ġsh oo
Ġthought s
ĠC indy
Ġafter wards
Ġdraw n
Ġbel ts
Ġgu ide
Ġbell s
Ġsour ce
ĠY et
ib i
Ġsnowfl akes
Ġwobb ly
Ġbak ery
u ess
Ġd et
ĠL izzie
ĠA bbie
Ġro ars
Ġsurpr ising
Ġhot ter
Ġshr inking
Ġwake s
Ġcam el
Ġzipp ing
Ġrecommend ed
Ġpout ed
c ited
f all
u ing
er ate
Ġsa le
at ur
ad es
ĠW o
Ġplan s
iver sity
Ġhope ful
Ġfiref ly
Ġdam age
Ġseas ons
lay ing
a ven
it ude
Ġr ather
ile y
Ġover come
Ġrain s
ang le
Ġstreet s
Ġmel ons
Ġtalent ed
y an
Ġsp ins
Ġpath s
Ġsque ak
ĠU p
Ġple asure
Ġtremb led
Ġflutter ed
ĠChr ist
E llie
Ġt igers
Ġm ate
Ġpl ain
Ġback wards
ion a
Ġcold er
ĠThank s
ĠPe anut
Ġsuit s
Ġdeliver ing
we ed
Ġshovel s
Ġwid ened
y ond
Ġbe yond
Ġy elp
ath an
Ġsea weed
ĠBl inky
Ġvan illa
Ġmer ma
Ġfart hest
J ul
a el
d a
t he
Ġd ip
Ġm aker
Ġg ross
Ġy um
Ġsh own
ch o
Ġas ide
Ġch ip
ĠR uff
Ġfit s
ment s
Ġfrown ing
Ġknot s
Fr ank
D olly
m as
ll en
ĠW ise
Ġwater ing
Ġam ong
Ġsto pping
ĠSpark le
Ġstro ll
Sp ike
r at
Ġnot es
ĠB ones
Ġe cho
ĠF airy
ĠK it
ĠP uppy
ert ain
Ġgrace fully
Ġrac coon
Ġsecond s
Ġslice s
ĠAm elia
Ġachie ved
umm ies
ĠWoo ly
Ġgle e
prin ts
A b
b ird
or man
Ġperf orman
Ġsec ure
Ġriver s
Ġband ages
Ġdriver s
Ġhaircut s
Ġflav ors
ĠGr anny
Ġfirm ly
ĠOl iver
Ġperforman ce
Ġt ipped
Ġto dd
Ġc oup
on na
ĠS imon
Ġwe pt
Ġsp ed
ob ody
ĠJ ump
ĠBu bb
Ġgigg les
ĠAl ong
Ġsend ing
Ġsurf board
Al ways
Ġpinch ing
ĠMike y
T ake
c used
h og
Ġt ummies
ed s
Ġn ibb
ĠF armer
Ġmagic ian
Ġsing le
Ġpop s
Ġsupp orted
Ġperform ing
Ġmagnet s
Ġhedge hog
Ġcountry side
Ġn apped
ĠS oft
Ġst itches
pec ting
Ġspit s
Ġnood les
G uess
J ump
Z ip
Ġd ie
Ġm oo
are n
ast y
Ġend s
Ġgarden er
Ġbel oved
Ġmark ers
Ġexp ress
Ġtest ing
Ġhall way
Ġslip s
Qu ack
Ġwob ble
ĠEle phant
' ."
B ear
g gy
r up
Ġa is
Ġr umble
Ġevery body
dd ie
Ġch os
Ġclean er
umb ling
Ġstro ke
Ġchos en
R ibbit
h ive
Ġc rew
Ġe v
ent ly
ong rat
ĠW endy
Ġwill ing
Ġint rigued
Ġspr ang
Ġlip stick
Ġpedal ed
ĠSu zie
Ġforgi ven
D ear
Z oomy
Ġh our
or ing
Ġbr u
ĠF ire
Ġfo cused
Ġcream s
Ġlesson s
oun ce
Ġbee hive
ĠEm my
ĠCh irp
Ġstand s
Ġbat hing
Ġtest ed
Ġheal th
Ġspeed ing
Ġdisturb ing
Ġrepe ating
ĠMiss y
Ġtub es
ĠGr umpy
ĠChrist mas
L ike
V room
Ġt urt
Ġa ud
Ġwa dd
on ies
Ġg onna
ĠS l
Ġli qu
ul p
Ġfl as
Ġte aring
ĠZ ee
ich ael
Ġhor iz
Ġneighb ours
Ġfrown s
Ġenthusia sm
Ġoy sters
Ġrever sed
Ġswims uit
Ġthorn s
Ġgreet ed
Ġcoup le
ongrat ul
Ġturt les
M ira
ĠH oney
ch ild
Ġde f
ĠR e
Ġban ged
Ġsquee zing
Ġsheet s
Ġenc ount
ĠCra b
Ġliqu id
Ġhoriz on
M ine
f ted
m ates
ĠS il
ĠW illy
Ġun w
Ġpe ck
Ġdraw ers
Ġunderstand s
ĠSt retch
Ġyield ed
ĠIs n
Ġgri p
B oys
C ar
V ery
c a
Ġd aring
Ġm ast
ĠB ibi
ec ca
Ġwater fall
Ġtw eet
Ġsweet est
Ġfill s
!âĢĿ .
Ġhoop s
Fred dy
etch up
Ġfreed om
M oo
P enny
Ġn uzz
il ity
ad ing
ell ow
Ġsoft er
ĠR el
Ġscrew d
Ġwigg ly
Ġinstrum ents
Ġmesmer ized
W ake
Z ara
ĠM an
og a
ĠN ear
Ġpay s
Ġsport s
ĠJul ia
ĠChe ss
ĠJan ie
ĠMix y
Ġaud ience
B essie
f ather
ver ed
Ġli es
ĠF uzzy
ĠJ une
Ġsw itched
Ġhead ing
Ġjoin ing
Ġdesign s
Ġmosquito es
Ġpur rs
Ġtwink led
Ġscra ped
B ang
K iki
P ut
ĠT ia
Ġwas ting
all owed
Ġsw allowed
Ġlong est
Ġmar sh
Ġpol itely
Ġsail s
St e
Ġsnee zes
Ġshark s
Ġremind s
ĠRob o
Ġgear s
Ġmerma id
H urry
K im
a ver
Ġt il
Ġc oug
at s
Ġkn ives
Ġsp ice
ook y
Ġch anges
Ġstor ed
ĠK ip
iss a
Ġsand y
Ġgrass y
Ġworry ing
Ġres pected
ĠN ice
aw n
Ġheal ing
Ġspill s
Ġgrand child
Ġ1 0
Ġtodd ler
A dam
S u
Ġm erry
om p
ll as
Ġu nd
Ġk etchup
Ġre ass
Ġsp ies
Ġfl ip
ĠE x
Ġexpl o
Ġwr ink
Ġar r
Ġpaint brush
Ġfoot prints
Ġpour s
Ġumbre llas
ĠSh ark
Ġspell s
Ġpost man
ĠJu dy
B ow
f us
l o
Ġp onies
Ġgo bb
ight ing
ous y
Ġcream y
Ġbit s
ĠTo ot
Ġcrown s
Ġcolour ed
Ġscrewd river
? !"
A unt
K ate
L iz
p arent
is ions
Ġn ur
ĠC ow
ĠP in
Ġcup c
Ġcross ing
Ġhang ers
Al right
Ġslipp ing
ĠBig gy
Ġbreat hed
ĠUn iversity
Ġscold s
Le ave
Ġresp ond
Ġcras hing
m allow
u rious
Ġs ill
ver al
Ġst acked
ĠM a
es p
Ġse veral
Ġpan icked
Ġnervous ly
Ġhesit ant
b age
e an
Ġ 2
it ion
ing er
Ġfl ight
Ġpr ove
Ġam ount
Ġdoll ars
Ġbelie ving
Ġspoon ful
Ġwis ely
Ġrelax ing
Ġbicy cles
ĠLou ise
immer ing
Ġev il
Ġmarsh mallow
c row
Ġb ully
an cy
or der
Ġhis s
Ġwor n
dd ing
Ġcolor ing
Ġhands ome
Ġdri pping
Ġres isted
Ġbasket s
Ġterri fied
Ġignor ing
ĠRob bie
Ġl ent
Ġc or
Ġm aster
ĠH ug
ĠB ad
ĠM ousy
Ġare n
Ġdec isions
Ġfo cus
Ġcloud y
ĠN obody
Ġsol ving
Ġship s
Ġnewsp apers
ĠMad die
- -
D avid
O pen
im ent
on i
un ched
ĠM abel
Ġsh ady
Ġso aking
Ġse als
ret ty
ĠR yan
ac y
Ġsmell ing
Ġser ving
Ġsell er
Ġweek end
Ġsnap s
Ġart ist
year s
Ġstud ent
Ġencourage ment
ĠAb i
Ġwid er
Ġrisk s
J amie
S ad
l ine
on nie
Ġg est
Ġne are
Ġla ce
Ġsqu ishy
Ġad ults
ĠTo dd
Ġel bow
Ġzoom s
Ġsniff ing
Ġcell s
Ch loe
ĠâĢ Ķ
Ġsurround ings
wh ile
Ġwound s
Ġsweat y
' ,
i very
Ġh oo
Ġm iles
Ġlo ses
ab ly
Ġsw ap
Ġcra cks
Ġdis ob
Good night
Ġmind ed
Ġteam s
Ġadd ress
Ġaeropl anes
Ġmagaz ines
Ġdelay ed
Ġfamil iar
Pipp in
Ġcharac ters
Ġencount ered
E ven
J azz
K eep
e en
f ire
Ġs y
ĠL oop
Ġfor ce
ĠW ell
Ġex ce
ear s
Ġstore keeper
Ġact ion
Ġtrust ing
ĠSt ella
Ġscare crow
Ġgrand parent
Ġlick ing
Bu zzy
Ġmaterial s
Ġwadd led
ĠSil ver
esp ite
z oom
ĠS al
an while
Ġr owed
ĠL uckily
ĠM int
al ph
Ġfl own
ĠD ina
ĠO t
Ġdiscuss ed
Ġbreat hing
Ġbur nt
Ġbehavi or
Co co
S low
T ry
Ġe ase
ch y
Ġno dding
Th omas
Ġtow ard
Mom ma
ĠP en
Ġbrave st
Ġdr own
oun ced
Ġmagn if
ĠMay a
Ġfirefight er
M at
Ġb am
ĠT oys
Ġm unch
en ing
Ġswim mer
Ġdri fted
Ġcover ing
Ġpeace fully
Ġtemp er
Ġperm itted
ĠY ummy
Ġbother ing
Un cle
Sn ow
Ġmate y
Ġunw ra
M o
Ġb itten
Ġp uck
of ia
Ġin ches
ĠM ina
Ġman ag
Ġhand ing
rom ise
Ġsqu aw
Ġpuzz led
Ġadd s
Ġrat s
Ġlow ered
Ġer ase
Ġgrand son
ĠPat ty
ĠPr ince
Ġpassen gers
C arl
i el
Ġwa king
or ter
Ġin sp
pp ies
ĠI zzy
nt il
Ġwh ales
ra c
Ġla pt
Ġch ar
Ġch arge
Ġche ers
Ġdel ivery
Ġant ic
Ġplant ing
Jo sh
Ġhum ming
ĠSh ow
Ġbeep ed
ĠDave y
Ġgaz ing
Ġrust ling
B inky
u dy
v ant
he l
Ġs ou
re y
ri e
Ġon ward
Ġe lf
ur render
Ġsc ient
ĠF ighting
Ġbl ast
Ġsl ither
Ġdon key
ĠHer b
Ġde ars
Ġtreat ed
Ġpri ck
Ġpray ers
Ġcamp fire
Ġsty les
ĠAm ber
Bird y
Ġpeel ed
Ġgest ure
Ġbam boo
Ġscient ist
R ock
S w
c c
Ġt ar
Ġg ap
at ty
ri er
ĠE ddie
ĠC ut
ail s
Ġjo ins
Ġpurp ose
Ġca using
Ġfoot step
Ġfle as
Ġswe ep
Ġhuman s
Ġsimp ly
Ġmeow s
ĠAm anda
ĠFish y
Ġtravell ed
Ġmonth s
Ġastronaut s
Ġfootstep s
T oo
f ly
re ct
or king
Ġwith in
ĠB ra
ĠM ake
Ġo cc
Ġsc en
ĠF iona
be ep
ĠJack ie
Ġexplore r
ĠO kay
In stead
Ġres ults
Ġkitten s
ĠN urse
Ġtap ed
Ġsuggest ion
Tw o
ĠMat ilda
Mar ia
ĠPo or
i am
v y
Ġm ood
Ġhe ight
Ġin j
Ġan ger
Ġman ners
Wh ich
Ġsn uck
Ġsqu ir
Ġfloor s
Ġquiet er
eb ecca
Be hind
Ġexplain s
atter ed
ĠSh are
Ġotter s
Ġfloat s
ĠY ellow
ĠFl utter
Ġais le
Ġgobb led
Ġlapt op
H annah
O live
f ive
Ġd ump
Ġg oo
st alk
ĠB ingo
ĠM in
Ġsc amp
op es
Ġche ated
