{"<pad>": 0, "<unk>": 1, "<s>": 2, "</s>": 3, "!": 4, "\"": 5, "#": 6, "$": 7, "%": 8, "&": 9, "'": 10, "(": 11, ")": 12, "*": 13, "+": 14, ",": 15, "-": 16, ".": 17, "/": 18, "0": 19, "1": 20, "2": 21, "3": 22, "4": 23, "5": 24, "6": 25, "7": 26, "8": 27, "9": 28, ":": 29, ";": 30, "<": 31, "=": 32, ">": 33, "?": 34, "@": 35, "A": 36, "B": 37, "C": 38, "D": 39, "E": 40, "F": 41, "G": 42, "H": 43, "I": 44, "J": 45, "K": 46, "L": 47, "M": 48, "N": 49, "O": 50, "P": 51, "Q": 52, "R": 53, "S": 54, "T": 55, "U": 56, "V": 57, "W": 58, "X": 59, "Y": 60, "Z": 61, "[": 62, "\\": 63, "]": 64, "^": 65, "_": 66, "`": 67, "a": 68, "b": 69, "c": 70, "d": 71, "e": 72, "f": 73, "g": 74, "h": 75, "i": 76, "j": 77, "k": 78, "l": 79, "m": 80, "n": 81, "o": 82, "p": 83, "q": 84, "r": 85, "s": 86, "t": 87, "u": 88, "v": 89, "w": 90, "x": 91, "y": 92, "z": 93, "{": 94, "|": 95, "}": 96, "~": 97, "¡": 98, "¢": 99, "£": 100, "¤": 101, "¥": 102, "¦": 103, "§": 104, "¨": 105, "©": 106, "ª": 107, "«": 108, "¬": 109, "®": 110, "¯": 111, "°": 112, "±": 113, "²": 114, "³": 115, "´": 116, "µ": 117, "¶": 118, "·": 119, "¸": 120, "¹": 121, "º": 122, "»": 123, "¼": 124, "½": 125, "¾": 126, "¿": 127, "À": 128, "Á": 129, "Â": 130, "Ã": 131, "Ä": 132, "Å": 133, "Æ": 134, "Ç": 135, "È": 136, "É": 137, "Ê": 138, "Ë": 139, "Ì": 140, "Í": 141, "Î": 142, "Ï": 143, "Ð": 144, "Ñ": 145, "Ò": 146, "Ó": 147, "Ô": 148, "Õ": 149, "Ö": 150, "×": 151, "Ø": 152, "Ù": 153, "Ú": 154, "Û": 155, "Ü": 156, "Ý": 157, "Þ": 158, "ß": 159, "à": 160, "á": 161, "â": 162, "ã": 163, "ä": 164, "å": 165, "æ": 166, "ç": 167, "è": 168, "é": 169, "ê": 170, "ë": 171, "ì": 172, "í": 173, "î": 174, "ï": 175, "ð": 176, "ñ": 177, "ò": 178, "ó": 179, "ô": 180, "õ": 181, "ö": 182, "÷": 183, "ø": 184, "ù": 185, "ú": 186, "û": 187, "ü": 188, "ý": 189, "þ": 190, "ÿ": 191, "Ā": 192, "ā": 193, "Ă": 194, "ă": 195, "Ą": 196, "ą": 197, "Ć": 198, "ć": 199, "Ĉ": 200, "ĉ": 201, "Ċ": 202, "ċ": 203, "Č": 204, "č": 205, "Ď": 206, "ď": 207, "Đ": 208, "đ": 209, "Ē": 210, "ē": 211, "Ĕ": 212, "ĕ": 213, "Ė": 214, "ė": 215, "Ę": 216, "ę": 217, "Ě": 218, "ě": 219, "Ĝ": 220, "ĝ": 221, "Ğ": 222, "ğ": 223, "Ġ": 224, "ġ": 225, "Ģ": 226, "ģ": 227, "Ĥ": 228, "ĥ": 229, "Ħ": 230, "ħ": 231, "Ĩ": 232, "ĩ": 233, "Ī": 234, "ī": 235, "Ĭ": 236, "ĭ": 237, "Į": 238, "į": 239, "İ": 240, "ı": 241, "Ĳ": 242, "ĳ": 243, "Ĵ": 244, "ĵ": 245, "Ķ": 246, "ķ": 247, "ĸ": 248, "Ĺ": 249, "ĺ": 250, "Ļ": 251, "ļ": 252, "Ľ": 253, "ľ": 254, "Ŀ": 255, "ŀ": 256, "Ł": 257, "ł": 258, "Ń": 259, "Ġt": 260, "he": 261, "Ġa": 262, "Ġs": 263, "nd": 264, "Ġw": 265, "Ġthe": 266, "ed": 267, "Ġb": 268, "Ġto": 269, "Ġand": 270, "Ġh": 271, "Ġf": 272, "in": 273, "ĠT": 274, "Ġwa": 275, "re": 276, "it": 277, "ou": 278, "Ġl": 279, "Ġd": 280, "Ġc": 281, "Ġp": 282, "ay": 283, "Ġm": 284, "er": 285, "Ġwas": 286, "om": 287, "ĠThe": 288, "Ġhe": 289, "is": 290, "Ġn": 291, "ar": 292, "im": 293, "on": 294, "Ġsa": 295, "id": 296, "ll": 297, "Ġha": 298, "Ġg": 299, "at": 300, "ĠS": 301, "ing": 302, "ot": 303, "en": 304, "an": 305, "le": 306, "or": 307, "end": 308, "ir": 309, "of": 310, "am": 311, "et": 312, "ĠH": 313, "Ġit": 314, "Ġth": 315, "ig": 316, "ĠThey": 317, "Ġin": 318, "il": 319, "Ġpl": 320, "ĠHe": 321, "Ġ\"": 322, "ow": 323, "ver": 324, "ri": 325, "ut": 326, "Ġbe": 327, "Ġu": 328, "Ġplay": 329, "Ġsaid": 330, "ith": 331, "Ġday": 332, "pp": 333, "Ġwith": 334, "On": 335, "Ġy": 336, "oo": 337, "ked": 338, "Ġr": 339, "ex": 340, "Ġher": 341, "ce": 342, "ĠI": 343, "ĠShe": 344, "ld": 345, "ĠTim": 346, "Ġhis": 347, "Ġst": 348, "ke": 349, "Ġbig": 350, "nt": 351, "ck": 352, "Ġyou": 353, "very": 354, "st": 355, "ve": 356, "Ġon": 357, "un": 358, "Ġhapp": 359, "riend": 360, "Ġfriend": 361, "all": 362, "ily": 363, "ext": 364, "ĠL": 365, "Ġthey": 366, "oft": 367, "Ġwe": 368, "Ġhad": 369, "Ġnot": 370, "Ġli": 371, "Ġup": 372, "her": 373, "Ġwant": 374, "Ġof": 375, "ad": 376, "itt": 377, "<|": 378, "|>": 379, "endoft": 380, "endoftext": 381, "se": 382, "ĠB": 383, "Ġdo": 384, "Ġe": 385, "Ġhappy": 386, "ĠM": 387, "ent": 388, "Ġvery": 389, "es": 390, "Ġthat": 391, "Ġsaw": 392, "One": 393, "'s": 394, "ould": 395, "Ġmom": 396, "Ġfor": 397, "Ġsh": 398, "ittle": 399, "Ġlittle": 400, "Ġshe": 401, "ime": 402, "ch": 403, "Ġnam": 404, ".\"": 405, "Ġtime": 406, "Ġso": 407, "Ġk": 408, "ound": 409, "Ġthere": 410, "Ġnamed": 411, "Ġsm": 412, "Ġbo": 413, "ĠLily": 414, "Ġwere": 415, "Ġne": 416, "Ġwanted": 417, "out": 418, "Ġbut": 419, "Ġfriends": 420, "The": 421, "ved": 422, "ht": 423, "!\"": 424, "ĠTom": 425, "ird": 426, "el": 427, "Ġbird": 428, "al": 429, "Ġan": 430, "ake": 431, "ome": 432, "Ġtoo": 433, "ĠIt": 434, "ug": 435, "ide": 436, "Ġwent": 437, "Ġwh": 438, "Ġhel": 439, "Once": 440, "Ġis": 441, "ue": 442, "Ġall": 443, "Ġhelp": 444, "Ġloo": 445, "Ġlo": 446, "ĠA": 447, "Ġupon": 448, "ter": 449, "ry": 450, "ore": 451, "Ġfun": 452, "ind": 453, "get": 454, "ill": 455, "Ġtoy": 456, "ame": 457, "Ġas": 458, "Ġat": 459, "Ġj": 460, "ra": 461, "Ġdid": 462, "gether": 463, "Ġre": 464, "ur": 465, "Ġo": 466, "Ġtogether": 467, "Ġse": 468, "ack": 469, "Ġcat": 470, "Ġtre": 471, "ly": 472, "ood": 473, "ic": 474, "Ġdog": 475, "ted": 476, "Ġcould": 477, "Ġcan": 478, "Ġtheir": 479, "ard": 480, "ark": 481, "ec": 482, "Ġgir": 483, "Ġplayed": 484, "Ġhim": 485, "Ġgirl": 486, "way": 487, "Ġball": 488, "?\"": 489, "Ġro": 490, "Ġgo": 491, "my": 492, "Ġout": 493, "Ġare": 494, "hed": 495, "ain": 496, "Ġkn": 497, "Ġle": 498, "Ġfr": 499, "'t": 500, "hen": 501, "Ġthem": 502, "um": 503, "ax": 504, "Ġsad": 505, "Ġtree": 506, "ul": 507, "Ġboy": 508, "Ġhave": 509, "other": 510, "Ġcl": 511, "Ġman": 512, "Ġlooked": 513, "Ġloved": 514, "oug": 515, "Ġfound": 516, "Ġsp": 517, "Ġstar": 518, "ĠSue": 519, "one": 520, "hing": 521, "Ġsc": 522, "ĠMax": 523, "Ġback": 524, "own": 525, "Ġlike": 526, "are": 527, "side": 528, "Ġme": 529, "Ġbec": 530, "ful": 531, "ight": 532, "ong": 533, "Ġpark": 534, "Ġcar": 535, "op": 536, "ĠOne": 537, "Ġliked": 538, "elt": 539, "Ġwould": 540, "round": 541, "Ġmake": 542, "Ġla": 543, "Ġfa": 544, "Ġfelt": 545, "You": 546, "ĠW": 547, "Ġsee": 548, "ell": 549, "ĠBut": 550, "omet": 551, "ouse": 552, "Ġasked": 553, "Ġnew": 554, "Ġno": 555, "ag": 556, "ĠSam": 557, "ared": 558, "Ġstarted": 559, "Ġcame": 560, "ice": 561, "ĠBen": 562, "Ġal": 563, "Ġother": 564, "iled": 565, "ought": 566, "Ġag": 567, "Ġsomet": 568, "Ġgood": 569, "Ġsmall": 570, "Ġbr": 571, "ss": 572, "Ġsay": 573, "Ġsmiled": 574, "ings": 575, "ried": 576, "ade": 577, "ob": 578, "ĠĊ": 579, "pot": 580, "Ġwor": 581, "Ġaway": 582, "Ġfind": 583, "Ġex": 584, "Ġput": 585, "ia": 586, "Ġwhat": 587, "ty": 588, "Ġsomething": 589, "Ġmade": 590, "Ġthought": 591, "Ġhome": 592, "Ġfrom": 593, "ened": 594, "Ġplaying": 595, "Ġco": 596, "Ġwal": 597, "Ġevery": 598, "ook": 599, "Ġmu": 600, "ach": 601, "ĠSpot": 602, "uc": 603, "Ġran": 604, "arn": 605, "ĠF": 606, "ĠJ": 607, "ile": 608, "ie": 609, "Ġhouse": 610, "Ġagain": 611, "Ġsome": 612, "ave": 613, "dd": 614, "Ġdown": 615, "Ġlaug": 616, "king": 617, "Ġscared": 618, "ny": 619, "Ġfl": 620, "Ġtook": 621, "ure": 622, "Ġpr": 623, "ick": 624, "if": 625, "Ġwill": 626, "Ġbox": 627, "Ġlearn": 628, "ĠYou": 629, "Ġtoys": 630, "Ġaround": 631, "Ġthings": 632, "ep": 633, "ab": 634, "ret": 635, "Ġmy": 636, "Ġyour": 637, "Ġbl": 638, "uck": 639, "oud": 640, "Ġwhen": 641, "Ġsun": 642, "Ġlived": 643, "ish": 644, "Ġfe": 645, "Ġthen": 646, "Ġsw": 647, "as": 648, "Ġch": 649, ",\"": 650, "pped": 651, "Ġab": 652, "us": 653, "ĠMia": 654, "ank": 655, "Tim": 656, "Ġget": 657, "ump": 658, "Th": 659, "oth": 660, "Ġlot": 661, "ap": 662, "ucy": 663, "ist": 664, "Ġtried": 665, "Ġknow": 666, "Ġsays": 667, "Ġgot": 668, "ited": 669, "ust": 670, "Ġkne": 671, "Ġwho": 672, "nder": 673, "Ġmany": 674, "Ġabout": 675, "Ġint": 676, "Lily": 677, "Ġany": 678, "Ġpret": 679, "Ġred": 680, "Ġdec": 681, "ĠD": 682, "ise": 683, "ive": 684, "Ġknew": 685, "ous": 686, "ace": 687, "Ġpic": 688, "Ġmore": 689, "ally": 690, "Ġv": 691, "Ġhug": 692, "qu": 693, "Ġcare": 694, "au": 695, "Ġpo": 696, "Ġbest": 697, "Ġbecame": 698, "Ġwater": 699, "fter": 700, "Ġlearned": 701, "ĠLucy": 702, "Ġexc": 703, "ause": 704, "ways": 705, "Ġoutside": 706, "Ġop": 707, "urp": 708, "âĢ": 709, "Ġalways": 710, "Ġgre": 711, "Ġlaughed": 712, "Ġshow": 713, "Ġlook": 714, "ĠBob": 715, "ite": 716, "Ġdecid": 717, "Ġroom": 718, "Ġun": 719, "Ġbecause": 720, "ĠSo": 721, "Ġho": 722, "fe": 723, "Ġdecided": 724, "Ġeat": 725, "Ġboth": 726, "Ġinto": 727, "ĠAnd": 728, "ant": 729, "Ġjump": 730, "ĠMom": 731, "ers": 732, "udd": 733, "Ġdad": 734, "Ġpe": 735, "Ġone": 736, "Ġke": 737, "They": 738, "nn": 739, "Ġexcited": 740, "Ġfeel": 741, "Ġthis": 742, "Ġnice": 743, "Ġlong": 744, "Ġfast": 745, "Tom": 746, "Yes": 747, "Ġrun": 748, "ĠE": 749, "Ġsk": 750, "Ġtr": 751, "Ġtold": 752, "urpr": 753, "Ġam": 754, "Ġinside": 755, "our": 756, "Ġsurpr": 757, "ull": 758, "ink": 759, "Ġmo": 760, "iny": 761, "Ġpretty": 762, "Ġsor": 763, "Ġtake": 764, "Wh": 765, "Ġgra": 766, "nna": 767, "lew": 768, "Ġsl": 769, "og": 770, "Ġeach": 771, "Ġgave": 772, "Ġmuch": 773, "Ġstr": 774, "Ġrock": 775, "ged": 776, "Ġhow": 777, "imal": 778, "Ġanimal": 779, "Ġor": 780, "ara": 781, "Ġneed": 782, "But": 783, "etter": 784, "Ġthan": 785, "Ġtow": 786, "Ġunder": 787, "ven": 788, "Ġold": 789, "ĠC": 790, "Ġsorry": 791, "ge": 792, "ess": 793, "ised": 794, "ro": 795, "urt": 796, "and": 797, "Ġwalked": 798, "Ġfish": 799, "Ġclo": 800, "Ġhand": 801, "Ġcle": 802, "Ġbear": 803, "ast": 804, "ase": 805, "ĠHis": 806, "Ġkind": 807, "ĠWe": 808, "Ġjust": 809, "urn": 810, "here": 811, "Ġdidn": 812, "pl": 813, "Ġte": 814, "Ġhappened": 815, "Ġflow": 816, "Ġwat": 817, "Ġfood": 818, "Ġhig": 819, "Ġtry": 820, "Ġide": 821, "Ġsky": 822, "ine": 823, "Ġsn": 824, "Ġnear": 825, "Ġlist": 826, "Ġanimals": 827, "rom": 828, "ving": 829, "Ġfi": 830, "ched": 831, "Ġidea": 832, "ff": 833, "Ġbetter": 834, "Ġus": 835, "ĠAmy": 836, "Ġheard": 837, "Ġbug": 838, "Ġits": 839, "Ġlet": 840, "Ġtw": 841, "gry": 842, "Ġen": 843, "pec": 844, "Ġshare": 845, "able": 846, "ate": 847, "Ġif": 848, "Thank": 849, "Ġstor": 850, "ĠTh": 851, "Mom": 852, "Ġcareful": 853, "Ġflew": 854, "ial": 855, "Ġfly": 856, "more": 857, "Ġanymore": 858, "Ġspec": 859, "lf": 860, "Ġspecial": 861, "Ġlots": 862, "Ġnever": 863, "Ġcom": 864, "Ġdan": 865, "Ġby": 866, "ion": 867, "Ġwind": 868, "Ġdon": 869, "Ġfo": 870, "Ġtal": 871, "Ġlove": 872, "ream": 873, "Ġbu": 874, "Ġgr": 875, "Ġend": 876, "Ġclean": 877, "ĠThen": 878, "rm": 879, "Ġeven": 880, "Ġshiny": 881, "ort": 882, "Ġfore": 883, "udden": 884, "ber": 885, "Ġcake": 886, "Ġhard": 887, "Ġover": 888, "ople": 889, "Ġmag": 890, "ak": 891, "Ġcol": 892, "Ġturn": 893, "uddenly": 894, "Ġbook": 895, "ĠAnna": 896, "Ġafter": 897, "Ġsafe": 898, "imb": 899, "Ġbad": 900, "Ġfam": 901, "Let": 902, "ady": 903, "Ġclimb": 904, "ĠEvery": 905, "Ġdoor": 906, "Ġhurt": 907, "Ġhigh": 908, "Ġsurprised": 909, "Ġcome": 910, "Ġground": 911, "Ġcu": 912, "Ġproud": 913, "pected": 914, "Ġpicked": 915, "bb": 916, "Ġpeople": 917, "Ġgl": 918, "arden": 919, "Ġgarden": 920, "Ġopened": 921, "Ġloud": 922, "Ġche": 923, "expected": 924, "Ġunexpected": 925, "ild": 926, "As": 927, "Ġway": 928, "Ġim": 929, "Ġgive": 930, "'m": 931, "Ġblue": 932, "Ġever": 933, "Ġhugged": 934, "Ġstill": 935, "Ġthanked": 936, "Ġcolor": 937, "ail": 938, "ĠFrom": 939, "ĠHer": 940, "Ġfar": 941, "Ġcall": 942, "ip": 943, "No": 944, "ĠWhen": 945, "iz": 946, "Ġoff": 947, "ummy": 948, "ĠK": 949, "age": 950, "ĠSara": 951, "uff": 952, "ough": 953, "Ġmagic": 954, "Ġjumped": 955, "Ġkid": 956, "Ġfamily": 957, "ool": 958, "Ġshould": 959, "Ġpar": 960, "Ġsmile": 961, "Ġwalk": 962, "kay": 963, "les": 964, "Ġqu": 965, "ĠIn": 966, "hes": 967, "Ġplace": 968, "Ġnow": 969, "ct": 970, "Ġstay": 971, "ture": 972, "em": 973, "Ġgreat": 974, "Ġstrong": 975, "ane": 976, "Ġunt": 977, "Ġforest": 978, "itty": 979, "aut": 980, "ĠP": 981, "Ġsto": 982, "Ġstick": 983, "dy": 984, "Ġbra": 985, "Ġuntil": 986, "Ġbro": 987, "Ġbeaut": 988, "ning": 989, "Ġsqu": 990, "Ġnext": 991, "oon": 992, "lease": 993, "unny": 994, "Ġhappily": 995, "Ġfrog": 996, "aking": 997, "Ġkids": 998, "Ġboat": 999, "ies": 1000, "Ġapp": 1001, "th": 1002, "oy": 1003, "Ġclos": 1004, "iful": 1005, "Ġbeautiful": 1006, "Ġlisten": 1007, "Ġwhile": 1008, "Ġstory": 1009, "Ġdra": 1010, "Ġshowed": 1011, "Ġpicture": 1012, "Ġhelped": 1013, "be": 1014, "Ġrain": 1015, "rel": 1016, "Ġtown": 1017, "Ġimp": 1018, "Ġbeing": 1019, "pt": 1020, "Ġtra": 1021, "ary": 1022, "ress": 1023, "Ġmor": 1024, "Ġeveryone": 1025, "It": 1026, "ree": 1027, "Ġhat": 1028, "Ġad": 1029, "uffy": 1030, "Ġcalled": 1031, "Ġmet": 1032, "Ġstopped": 1033, "Ġwo": 1034, "Now": 1035, "Can": 1036, "Ġgame": 1037, "Ġrem": 1038, "He": 1039, "Ġsoft": 1040, "Ġtruck": 1041, "by": 1042, "Ġyummy": 1043, "Ġangry": 1044, "Ġopen": 1045, "Ġcry": 1046, "When": 1047, "Ġbed": 1048, "ĠSally": 1049, "Ġkeep": 1050, "vent": 1051, "ĠLet": 1052, "ger": 1053, "ĠKitty": 1054, "Ġmouse": 1055, "Ġwatch": 1056, "Ġwarm": 1057, "Ġate": 1058, "Ġbrave": 1059, "Ġcouldn": 1060, "ĠWh": 1061, "Ġlost": 1062, "Ġde": 1063, "so": 1064, "ĠR": 1065, "fore": 1066, "Ġfell": 1067, "dded": 1068, "Ġalso": 1069, "ished": 1070, "Ġdoll": 1071, "Ġleave": 1072, "Ġface": 1073, "Ġnoise": 1074, "ble": 1075, "owl": 1076, "What": 1077, "Ġtwo": 1078, "Ġwhere": 1079, "bit": 1080, "Ġgreen": 1081, "irst": 1082, "gan": 1083, "Ġflowers": 1084, "luffy": 1085, "abbit": 1086, "iss": 1087, "az": 1088, "self": 1089, "ock": 1090, "Ġsoon": 1091, "irrel": 1092, "illy": 1093, "Ġslide": 1094, "Ġrabbit": 1095, "Ġpus": 1096, "Ġhear": 1097, "Ġhands": 1098, "Ġbefore": 1099, "Ġhole": 1100, "Ġsquirrel": 1101, "Ġsat": 1102, "Ġexpl": 1103, "Ġpa": 1104, "ired": 1105, "ma": 1106, "Ġkept": 1107, "Ġnodded": 1108, "Then": 1109, "ear": 1110, "Hi": 1111, "âĢĿ": 1112, "âĢľ": 1113, "That": 1114, "Ġpain": 1115, "Ġuse": 1116, "Look": 1117, "Ġstore": 1118, "ĠFluffy": 1119, "Ġbirds": 1120, "Ġcook": 1121, "Ġgoing": 1122, "Ġhaving": 1123, "day": 1124, "Ġey": 1125, "Ġcatch": 1126, "Ġbunny": 1127, "Ġsing": 1128, "Ġfunny": 1129, "Ġbre": 1130, "leep": 1131, "Ġfix": 1132, "aybe": 1133, "Ġfin": 1134, "ange": 1135, "aug": 1136, "Ben": 1137, "aught": 1138, "Ġwr": 1139, "Ġthink": 1140, "Ġcra": 1141, "uit": 1142, "ĠCan": 1143, "Ġlooking": 1144, "Ġyell": 1145, "uch": 1146, "Ġwork": 1147, "Ġtired": 1148, "thing": 1149, "Ġour": 1150, "Ġused": 1151, "ĠNow": 1152, "We": 1153, "Ġkit": 1154, "Ġmean": 1155, "Ġhas": 1156, "Ġpull": 1157, "air": 1158, "ting": 1159, "Ġsunny": 1160, "ĠG": 1161, "Ġthr": 1162, "Ġjo": 1163, "Ġwait": 1164, "Ġbus": 1165, "Ġsound": 1166, "Ġothers": 1167, "Ġpond": 1168, "Ġask": 1169, "Ġbeh": 1170, "ng": 1171, "led": 1172, "chen": 1173, "Ġkitchen": 1174, "Ġtalk": 1175, "Ġflo": 1176, "joy": 1177, "ĠJo": 1178, "Ġdr": 1179, "Ġhead": 1180, "Ġeyes": 1181, "ember": 1182, "rew": 1183, "Ġfirst": 1184, "Ġfav": 1185, "Ġpie": 1186, "Ġmommy": 1187, "Ġreal": 1188, "Ġdif": 1189, "Ġcon": 1190, "Ġtri": 1191, "Ġmess": 1192, "orn": 1193, "ello": 1194, "Hello": 1195, "Ġflower": 1196, "Ġright": 1197, "ious": 1198, "Ġvo": 1199, "Ġcuri": 1200, "ath": 1201, "ĠJack": 1202, "Ġduck": 1203, "eet": 1204, "Ġsand": 1205, "Ġenjoy": 1206, "imes": 1207, "Ġcold": 1208, "ĠâĢľ": 1209, "Ġz": 1210, "ft": 1211, "Ġimport": 1212, "Ġparty": 1213, "Ġmoral": 1214, "Ġadvent": 1215, "Ġshared": 1216, "zy": 1217, "ĠDo": 1218, "Ġremember": 1219, "Ġrace": 1220, "Ġbright": 1221, "Ġhill": 1222, "Ġcurious": 1223, "Ġokay": 1224, "Ġmon": 1225, "ac": 1226, "At": 1227, "reed": 1228, "Ġmaking": 1229, "Ġhop": 1230, "llow": 1231, "Ġyard": 1232, "Ġworked": 1233, "ount": 1234, "Ġtall": 1235, "Ġimportant": 1236, "Ġhid": 1237, "Ġsleep": 1238, "Ġfavor": 1239, "Ġdir": 1240, "Ġcla": 1241, "Ġown": 1242, "Ġfavorite": 1243, "Ġhere": 1244, "Ġthing": 1245, "Wow": 1246, "Ġbegan": 1247, "Ġbag": 1248, "que": 1249, "Ġdis": 1250, "Ġdress": 1251, "Ġrest": 1252, "Ġdraw": 1253, "Don": 1254, "hn": 1255, "ĠFin": 1256, "Ġtell": 1257, "lly": 1258, "Ġri": 1259, "Ġwatched": 1260, "ster": 1261, "Ġnight": 1262, "aper": 1263, "Ġagreed": 1264, "Ġfollow": 1265, "Ġsurprise": 1266, "Ġbel": 1267, "ect": 1268, "Ġice": 1269, "Ġmove": 1270, "Ġblock": 1271, "Ġpick": 1272, "Ġgrass": 1273, "Ġcut": 1274, "co": 1275, "Ġhot": 1276, "ĠThis": 1277, "Ġtrees": 1278, "Ġdark": 1279, "ied": 1280, "Ġstop": 1281, "Ġhun": 1282, "Ġsho": 1283, "Ġbehind": 1284, "Ġwalking": 1285, "Ġru": 1286, "Ġtable": 1287, "Ġfloor": 1288, "Ġworry": 1289, "Ġtop": 1290, "After": 1291, "Ġvoice": 1292, "Ġfarm": 1293, "ĠDad": 1294, "Ġlion": 1295, "Ġforg": 1296, "Max": 1297, "Ġsong": 1298, "Ġtail": 1299, "Ġplease": 1300, "Ġcolors": 1301, "Ġlady": 1302, "Ġread": 1303, "Ġshout": 1304, "Ġsweet": 1305, "fere": 1306, "isy": 1307, "Ġdiffere": 1308, "Ġcloser": 1309, "Ġleaves": 1310, "aring": 1311, "Ġdoes": 1312, "Ġturned": 1313, "âĢĻ": 1314, "Ġneeded": 1315, "ĠMr": 1316, "ign": 1317, "Ġadventure": 1318, "Ġwood": 1319, "Ġfeeling": 1320, "Ġtast": 1321, "Ġdel": 1322, "ĠSuddenly": 1323, "Ġcars": 1324, "Ġpaper": 1325, "ered": 1326, "Ġswing": 1327, "Why": 1328, "Ġpiece": 1329, "Ġcried": 1330, "Sue": 1331, "Ġdifferent": 1332, "Anna": 1333, "Ġfull": 1334, "Ġfire": 1335, "Ġprin": 1336, "Ġlaugh": 1337, "Ġroll": 1338, "bo": 1339, "Ġbutter": 1340, "Ġhungry": 1341, "Ġyellow": 1342, "Ġfriendly": 1343, "Ġwet": 1344, "ike": 1345, "ĠAs": 1346, "Ġcr": 1347, "ken": 1348, "Ġhair": 1349, "oom": 1350, "Ġtouch": 1351, "ĠThat": 1352, "Ġper": 1353, "ient": 1354, "Ġbroken": 1355, "Ġfruit": 1356, "Ġclimbed": 1357, "ater": 1358, "cked": 1359, "Sam": 1360, "Ġdance": 1361, "Ġprom": 1362, "ached": 1363, "bye": 1364, "Ġlight": 1365, "Ġrunning": 1366, "ppy": 1367, "Ġanother": 1368, "where": 1369, "Ġready": 1370, "ĠBobo": 1371, "Ġpretend": 1372, "Ġlistened": 1373, "Ġplan": 1374, "Ġdanc": 1375, "ĠJane": 1376, "Ġswim": 1377, "bbed": 1378, "Ġonly": 1379, "Ġgone": 1380, "She": 1381, "Suddenly": 1382, "Ġsmell": 1383, "Ġwonder": 1384, "sh": 1385, "Ġclose": 1386, "Ġblocks": 1387, "Ġamaz": 1388, "ndma": 1389, "av": 1390, "Ġhold": 1391, "Ġrepl": 1392, "Ġant": 1393, "ins": 1394, "Sara": 1395, "Ġglad": 1396, "Ġhelping": 1397, "So": 1398, "Ġsees": 1399, "ĠAll": 1400, "Ġwall": 1401, "oney": 1402, "Ġpu": 1403, "aby": 1404, "Ġslow": 1405, "Ġcool": 1406, "ĠTimmy": 1407, "Ġgoodbye": 1408, "Ġreached": 1409, "Ġbeen": 1410, "Ġdri": 1411, "iced": 1412, "Ġpushed": 1413, "red": 1414, "ila": 1415, "Ġwindow": 1416, "Ġac": 1417, "Ġar": 1418, "Ġfight": 1419, "Ġexplore": 1420, "Mia": 1421, "Ġless": 1422, "Ġhide": 1423, "ĠO": 1424, "Ġmoment": 1425, "af": 1426, "ather": 1427, "Ġstuck": 1428, "ĠEveryone": 1429, "Ġtrying": 1430, "Ġste": 1431, "Ġsnow": 1432, "Ġwag": 1433, "Ġmight": 1434, "Ġname": 1435, "Ġsit": 1436, "Ġapple": 1437, "icy": 1438, "Ġmust": 1439, "Ġcream": 1440, "Ġfair": 1441, "Ġbit": 1442, "Ġchild": 1443, "ized": 1444, "Ġperf": 1445, "Ġquick": 1446, "Ġdone": 1447, "Ġcoming": 1448, "Ġthank": 1449, "Ġunderst": 1450, "Ġheld": 1451, "key": 1452, "Ġbuy": 1453, "Ġdirty": 1454, "Ġfall": 1455, "Ġscary": 1456, "Ġbar": 1457, "aisy": 1458, "Ġbaby": 1459, "Ġbutterf": 1460, "Ġlooks": 1461, "Ġwished": 1462, "Ġdin": 1463, "Ġdream": 1464, "Ġballoon": 1465, "Ġbuild": 1466, "In": 1467, "Ġdoing": 1468, "Ġowl": 1469, "ott": 1470, "ames": 1471, "Ġwise": 1472, "Ġtrain": 1473, "Ġair": 1474, "Ġreplied": 1475, "Ġbooks": 1476, "Ġreach": 1477, "Ġdro": 1478, "Ġleft": 1479, "Ġtiny": 1480, "Ġbran": 1481, "ash": 1482, "Ġclapped": 1483, "Ġcloud": 1484, "Ġmar": 1485, "Ġshouted": 1486, "Ġthrough": 1487, "Ġcount": 1488, "andy": 1489, "ely": 1490, "Ġwin": 1491, "Ġpulled": 1492, "ield": 1493, "Ġwhy": 1494, "Ġthree": 1495, "avy": 1496, "Ġsure": 1497, "'re": 1498, "Ġchair": 1499, "Ġgrow": 1500, "Ġbrother": 1501, "Ġwoods": 1502, "Ġtreat": 1503, "Ġpink": 1504, "amp": 1505, "Ġnest": 1506, "Ġspl": 1507, "Ġsometimes": 1508, "Ġcup": 1509, "Ġseen": 1510, "Ġmat": 1511, "ix": 1512, "Ġjoin": 1513, "outh": 1514, "Okay": 1515, "Ġland": 1516, "Ġfill": 1517, "Ġcre": 1518, "Ġjob": 1519, "pe": 1520, "art": 1521, "Ġcolorful": 1522, "Ġpaint": 1523, "uddy": 1524, "Ġmouth": 1525, "Ġgrabbed": 1526, "ask": 1527, "oup": 1528, "Ġstayed": 1529, "Ġwaved": 1530, "Ġcont": 1531, "ĠAfter": 1532, "ĠMommy": 1533, "This": 1534, "ower": 1535, "Ġplant": 1536, "ĠThere": 1537, "Ġblew": 1538, "Ġwaited": 1539, "ds": 1540, "Ġbigger": 1541, "Ġlikes": 1542, "room": 1543, "ph": 1544, "Oh": 1545, "Ġlesson": 1546, "Ġcast": 1547, "Ġenjoyed": 1548, "Ġremembered": 1549, "Ġquickly": 1550, "Ġnoticed": 1551, "Ġset": 1552, "Ġclot": 1553, "Ġbutterfly": 1554, "Ġclothes": 1555, "der": 1556, "cle": 1557, "Ġpictures": 1558, "Ġpen": 1559, "Ġbroke": 1560, "Ġanything": 1561, "Jo": 1562, "Ġgames": 1563, "ries": 1564, "Ġalone": 1565, "Ġpot": 1566, "Ġbott": 1567, "Ġgif": 1568, "Ġhopped": 1569, "Ġgent": 1570, "de": 1571, "Ġtight": 1572, "ucky": 1573, "ation": 1574, "Ġsea": 1575, "Ġheavy": 1576, "Ġworld": 1577, "Ġpat": 1578, "Ġmus": 1579, "Ġspot": 1580, "ton": 1581, "Ġmiss": 1582, "Ġyear": 1583, "Ġturns": 1584, "asure": 1585, "lc": 1586, "man": 1587, "Ġmix": 1588, "Her": 1589, "Ġhimself": 1590, "Ġtower": 1591, "Ġthrew": 1592, "row": 1593, "Ġbike": 1594, "Ġarm": 1595, "Ġeverywhere": 1596, "Ġwhite": 1597, "ctor": 1598, "Lucy": 1599, "Ġwon": 1600, "ĠBuddy": 1601, "orm": 1602, "Ġswam": 1603, "less": 1604, "olly": 1605, "Ġcomp": 1606, "Ġju": 1607, "ape": 1608, "Bob": 1609, "Ġje": 1610, "Ġfollowed": 1611, "Ġmakes": 1612, "Ġblack": 1613, "ĠDaisy": 1614, "Ġkey": 1615, "ĠWhat": 1616, "Ġve": 1617, "Ġwrong": 1618, "Ġdelic": 1619, "thy": 1620, "Ġpol": 1621, "Ġdeep": 1622, "Ġbreak": 1623, "Ġforgot": 1624, "oun": 1625, "Spot": 1626, "Ġcastle": 1627, "arent": 1628, "Ġride": 1629, "ner": 1630, "iet": 1631, "ued": 1632, "Ġmusic": 1633, "Ġround": 1634, "\".": 1635, "ee": 1636, "Do": 1637, "Ġquiet": 1638, "cess": 1639, "Ġwear": 1640, "Ġparent": 1641, "Ġnap": 1642, "Ġmonster": 1643, "Ġhit": 1644, "ister": 1645, "Ġem": 1646, "Ġbee": 1647, "Ġvis": 1648, "Ġunderstand": 1649, "Ġdanced": 1650, "ves": 1651, "Ġstu": 1652, "Ġdry": 1653, "rot": 1654, "Ġwants": 1655, "ully": 1656, "ang": 1657, "ance": 1658, "zz": 1659, "Ġbor": 1660, "os": 1661, "Ġtalked": 1662, "ĠJohn": 1663, "ts": 1664, "ross": 1665, "From": 1666, "ren": 1667, "Ġcookies": 1668, "fully": 1669, "Ġsmart": 1670, "Ġside": 1671, "Ġleaf": 1672, "Ġres": 1673, "Ġmum": 1674, "Ġbrought": 1675, "Ġrocks": 1676, "Ġque": 1677, "Ġleg": 1678, "Ġbowl": 1679, "Ġpoin": 1680, "Ġhappen": 1681, "Ġfaster": 1682, "ence": 1683, "Ġrel": 1684, "ĠInside": 1685, "Ġsister": 1686, "Ġsharing": 1687, "Ġsec": 1688, "Ġbranch": 1689, "Ġcontin": 1690, "Ġreally": 1691, "Ġworried": 1692, "Ġbutton": 1693, "cy": 1694, "Ġsomeone": 1695, "Ġwell": 1696, "ards": 1697, "Ġfinished": 1698, "Ġfox": 1699, "itten": 1700, "eddy": 1701, "Ġgu": 1702, "Ġvisit": 1703, "His": 1704, "Ġflying": 1705, "ĠMaybe": 1706, "Ġdinner": 1707, "Ġsign": 1708, "ĠTo": 1709, "Ġsilly": 1710, "gy": 1711, "ĠJoe": 1712, "Ġsecret": 1713, "Ġtoday": 1714, "Ġel": 1715, "ipp": 1716, "Ġbeach": 1717, "Ġeverything": 1718, "ĠSoon": 1719, "Ġsmiles": 1720, "Ġfield": 1721, "Ġdanger": 1722, "Ġele": 1723, "Ġear": 1724, "Ġwish": 1725, "Ġpudd": 1726, "Ġpig": 1727, "Ġorange": 1728, "Ġriver": 1729, "Ġperfect": 1730, "Ġfilled": 1731, "John": 1732, "Ġelse": 1733, "Ġsang": 1734, "Ġcontinued": 1735, "Ġsnack": 1736, "Ġwelc": 1737, "Ġbite": 1738, "ĠSarah": 1739, "Ġgi": 1740, "ses": 1741, "Ġking": 1742, "Ġchildren": 1743, "Ġshin": 1744, "ĠAt": 1745, "Ġeating": 1746, "Ġpromised": 1747, "Ġrealized": 1748, "Ġpieces": 1749, "ze": 1750, "Ġfur": 1751, "While": 1752, "ead": 1753, "Ġspr": 1754, "Ġfree": 1755, "ĠLila": 1756, "ated": 1757, "ĠEm": 1758, "Ġmud": 1759, "Ġparents": 1760, "Ġblank": 1761, "Ġjar": 1762, "stead": 1763, "Ġcarefully": 1764, "itting": 1765, "Ġdrag": 1766, "Maybe": 1767, "Ġblanket": 1768, "Ġboun": 1769, "imi": 1770, "Just": 1771, "Ġyes": 1772, "Ġrolled": 1773, "Ġdrink": 1774, "Ġcow": 1775, "Ġsail": 1776, "Ġcrying": 1777, "Ġmonkey": 1778, "Ġbath": 1779, "Ġlaughing": 1780, "Ġgift": 1781, "Ġpurp": 1782, "Amy": 1783, "Ġbottle": 1784, "Ġdoctor": 1785, "Ġsoup": 1786, "Ġwords": 1787, "Ġamazing": 1788, "Ġsnake": 1789, "Ġlon": 1790, "Ġgrandma": 1791, "Ġbrown": 1792, "Ġenough": 1793, "Ġpet": 1794, "ĠBilly": 1795, "Ġwhe": 1796, "cket": 1797, "ĠZ": 1798, "Ġasks": 1799, "Ġlonely": 1800, "Ġbarked": 1801, "Ġpurple": 1802, "Ġwithout": 1803, "ire": 1804, "Fin": 1805, "used": 1806, "Ġthrow": 1807, "ises": 1808, "ey": 1809, "Ġcrab": 1810, "ich": 1811, "Ġmorning": 1812, "chool": 1813, "Ġclosed": 1814, "Ġlake": 1815, "Ġwagged": 1816, "Ġshop": 1817, "Ġmoved": 1818, "Ġmoney": 1819, "ased": 1820, "Ġcandy": 1821, "unch": 1822, "Ġapples": 1823, "ons": 1824, "fort": 1825, "ere": 1826, "Ġwelcome": 1827, "Ġhigher": 1828, "ĠGra": 1829, "Ġschool": 1830, "Ġatt": 1831, "ale": 1832, "Ġdangerous": 1833, "Ġsitting": 1834, "iver": 1835, "Ġfairy": 1836, "ub": 1837, "Ġshoes": 1838, ".âĢĿ": 1839, "Ġpaw": 1840, "Ġstrange": 1841, "ord": 1842, "gg": 1843, "Ġmail": 1844, "Ġcreat": 1845, "Ġgetting": 1846, "althy": 1847, "Ġpre": 1848, "Ġstre": 1849, "Ġliving": 1850, "Ġtreasure": 1851, "Ġ-": 1852, "ible": 1853, "ĠBl": 1854, "ush": 1855, "!âĢĿ": 1856, "Ġpast": 1857, "fish": 1858, "Ġowner": 1859, "vel": 1860, "Mommy": 1861, "Ġpass": 1862, "Ġtalking": 1863, "Ġletter": 1864, "ass": 1865, "Ġshining": 1866, "Ġruns": 1867, "Ġsmo": 1868, "Ġchee": 1869, "ĠTommy": 1870, "Ġph": 1871, "Ġpill": 1872, "Ġegg": 1873, "app": 1874, "Ġroad": 1875, "Ġwings": 1876, "board": 1877, "Ġmad": 1878, "Ġmother": 1879, "Ġbelie": 1880, "Ġdragon": 1881, "Ġbring": 1882, "ĠMimi": 1883, "Ġfarmer": 1884, "Ġthinks": 1885, "Ġdelicious": 1886, "Ġpuddle": 1887, "me": 1888, "Ġcoat": 1889, "Ġra": 1890, "Ġteddy": 1891, "Ġcaught": 1892, "ĠCh": 1893, "Ġcoll": 1894, "Ġstand": 1895, "Ġwhist": 1896, "emy": 1897, "Ġbuck": 1898, "arm": 1899, "cks": 1900, "ol": 1901, "bow": 1902, "itch": 1903, "asket": 1904, "una": 1905, "Ġyears": 1906, "Ġbasket": 1907, "igh": 1908, "Ġkite": 1909, "Ġnose": 1910, "Ġsear": 1911, "Ġhor": 1912, "set": 1913, "ches": 1914, "Ġscream": 1915, "Ġsame": 1916, "Ġfan": 1917, "Ġwore": 1918, "Ġbat": 1919, "Ġdays": 1920, "isk": 1921, "Ġfinally": 1922, "Ġstart": 1923, "Ġtom": 1924, "Ġpush": 1925, "Ġswings": 1926, "ella": 1927, "up": 1928, "igg": 1929, "sw": 1930, "Ġstone": 1931, "Ġtasty": 1932, "Ġsinging": 1933, "Ġgentle": 1934, "ined": 1935, "Ġmine": 1936, "Ġherself": 1937, "Ġansw": 1938, "Ġhoped": 1939, "Ġtrou": 1940, "Ġrainbow": 1941, "Ġcarrot": 1942, "Ġdropped": 1943, "Ġcray": 1944, "Ġfit": 1945, "ĠJen": 1946, "Ġvill": 1947, "Ġteach": 1948, "Ġteac": 1949, "Ġarri": 1950, "Please": 1951, "Ġcho": 1952, "Ġwoke": 1953, "OK": 1954, "Ġbow": 1955, "Ġsack": 1956, "Ġpers": 1957, "iskers": 1958, "ier": 1959, "Ġshap": 1960, "Ġspoon": 1961, "Jack": 1962, "aughty": 1963, "Ġbush": 1964, "Ġseem": 1965, "ama": 1966, "Ġcour": 1967, "ract": 1968, "erry": 1969, "'ll": 1970, "Ġnaughty": 1971, "Ġcheered": 1972, "Ġbelong": 1973, "phant": 1974, "Ġbread": 1975, "Ġhiding": 1976, "Ġseed": 1977, "sc": 1978, "sy": 1979, "Ġtwins": 1980, "Ġben": 1981, "Ġpile": 1982, "Ġplane": 1983, "Ġpuppy": 1984, "ipped": 1985, "Ġshell": 1986, "fused": 1987, "Ġlunch": 1988, "Ġfence": 1989, "irth": 1990, "Ġgrew": 1991, "eb": 1992, "irthday": 1993, "Ġcourse": 1994, "Ġcute": 1995, "Ġshook": 1996, "llie": 1997, "Ġrope": 1998, "Ġtouc": 1999, "Ġspin": 2000, "Ġjuice": 2001, "Ġstreet": 2002, "Ġmin": 2003, "Ġwonderful": 2004, "ĠBlue": 2005, "Ġbell": 2006, "Ġjoy": 2007, "Ġforever": 2008, "Good": 2009, "Ġcheese": 2010, "Ġshapes": 2011, "Ġelephant": 2012, "Ġvillage": 2013, "Ġable": 2014, "Ġteacher": 2015, "ilk": 2016, "Ġspo": 2017, "Ġnut": 2018, "Ġprob": 2019, "Ġcorn": 2020, "Ġarrived": 2021, "idge": 2022, "ĠThank": 2023, "Ġpromise": 2024, "Ġshake": 2025, "ĠRemy": 2026, "Ġrob": 2027, "Ġbirthday": 2028, "Ġinc": 2029, "Ġfew": 2030, "Ġdes": 2031, "lem": 2032, "Ġtouched": 2033, "Ġeas": 2034, "Ġmilk": 2035, "umb": 2036, "Ġband": 2037, "Ġproblem": 2038, "Ġmost": 2039, "Ġbugs": 2040, "Ġpop": 2041, "ĠWhiskers": 2042, "Ġwar": 2043, "ĠEmma": 2044, "ball": 2045, "Ġpower": 2046, "Ġcarry": 2047, "br": 2048, "Ġbusy": 2049, "Ġheart": 2050, "Ġstorm": 2051, "Ġsounds": 2052, "Ġcave": 2053, "ost": 2054, "isa": 2055, "Finally": 2056, "ĠFred": 2057, "Ġneck": 2058, "Ġbelieve": 2059, "lla": 2060, "ian": 2061, "Ġfeels": 2062, "Ġpatient": 2063, "Ġbench": 2064, "col": 2065, "ato": 2066, "Ġdolls": 2067, "Ġshy": 2068, "adow": 2069, "gly": 2070, "Ġwra": 2071, "Ġcir": 2072, "irt": 2073, "Ġkiss": 2074, "Ġrobot": 2075, "eter": 2076, "Ġtowards": 2077, "Ġdist": 2078, "unt": 2079, "Ġlate": 2080, "Ġpocket": 2081, "Ġgray": 2082, "Ġshr": 2083, "urtle": 2084, "Ġlive": 2085, "ountain": 2086, "Ġnoises": 2087, "eared": 2088, "Ġspark": 2089, "Ġdisapp": 2090, "Ġhoney": 2091, "ĠBella": 2092, "Ġholding": 2093, "Ġugly": 2094, "Ġslowly": 2095, "Ġrec": 2096, "Ġob": 2097, "Ġhelpful": 2098, "Ġstories": 2099, "ator": 2100, "Ġyoung": 2101, "oggy": 2102, "Ġupset": 2103, "ourn": 2104, "irp": 2105, "Ġmeet": 2106, "arp": 2107, "Ġjourn": 2108, "alm": 2109, "Ġtreats": 2110, "umpy": 2111, "ling": 2112, "Ġdriver": 2113, "Ġcover": 2114, "Ġballs": 2115, "Ġdi": 2116, "Ġdirt": 2117, "read": 2118, "Ġamazed": 2119, "umber": 2120, "Ġseat": 2121, "Ġsuc": 2122, "Ġseek": 2123, "Ġpuzz": 2124, "Ġsharp": 2125, "Ġturtle": 2126, "Ġhugs": 2127, "Ġcloth": 2128, "oose": 2129, "Ġglow": 2130, "ĠLe": 2131, "Ġpillow": 2132, "Ġmark": 2133, "lder": 2134, "Ġsplas": 2135, "Ġwild": 2136, "epend": 2137, "Ġhorse": 2138, "pping": 2139, "Ġprincess": 2140, "Ġmagical": 2141, "Ġzoom": 2142, "Ġsandw": 2143, "Ġstars": 2144, "Ġcard": 2145, "Ġspid": 2146, "fortable": 2147, "ĠMark": 2148, "Ġnet": 2149, "Ġorgan": 2150, "Ġtrip": 2151, "ung": 2152, "iling": 2153, "Ġkitten": 2154, "Ġmist": 2155, "ove": 2156, "Ġlucky": 2157, "Ġrude": 2158, "Ġwheel": 2159, "Ġmach": 2160, "Ġspicy": 2161, "Ġbucket": 2162, "Ġwide": 2163, "Ġinstead": 2164, "Ġhuge": 2165, "Ġdrove": 2166, "Ġtaking": 2167, "Ġsug": 2168, "Ġstring": 2169, "Ġcoin": 2170, "Sure": 2171, "Ġinv": 2172, "Ġwhistle": 2173, "Ġpart": 2174, "ors": 2175, "Ġcraw": 2176, "Ġca": 2177, "Ġfighting": 2178, "Ġwrite": 2179, "aur": 2180, "ĠJim": 2181, "ular": 2182, "Later": 2183, "ĠFinally": 2184, "Of": 2185, "Be": 2186, "Ġsick": 2187, "not": 2188, "Hey": 2189, "Ġbubb": 2190, "Ġbri": 2191, "ĠAnn": 2192, "Ġsal": 2193, "oph": 2194, "Ġfixed": 2195, "ens": 2196, "pper": 2197, "Ġforget": 2198, "est": 2199, "Ġgiant": 2200, "Ġcannot": 2201, "Ġlem": 2202, "Ġcookie": 2203, "Ġmoon": 2204, "lower": 2205, "ĠJust": 2206, "den": 2207, "ĠCome": 2208, "Ġboss": 2209, "Ġsongs": 2210, "ĠOn": 2211, "Ġbone": 2212, "Ġcart": 2213, "Ġtaste": 2214, "Ġcomes": 2215, "Ġser": 2216, "Ġwave": 2217, "Ġchased": 2218, "Lila": 2219, "Ġhidden": 2220, "Ġdaddy": 2221, "elly": 2222, "Ġconfused": 2223, "ert": 2224, "ĠGrandma": 2225, "erest": 2226, "Ġspider": 2227, "Ġlife": 2228, "Ġsel": 2229, "Ġsnowman": 2230, "Ġlast": 2231, "Ġsuddenly": 2232, "Ġthin": 2233, "Ġshelf": 2234, "Ġfoot": 2235, "Ġcou": 2236, "Ġphone": 2237, "Ġpath": 2238, "Ġinterest": 2239, "Ġducks": 2240, "ize": 2241, "Ġadventures": 2242, "Ġstepped": 2243, "ĠBu": 2244, "Ġgrab": 2245, "Ġbark": 2246, "ĠLisa": 2247, "Ġwasn": 2248, "Ġjoke": 2249, "Ġdrive": 2250, "Ġfle": 2251, "Ġchick": 2252, "Ġring": 2253, "Ġmachine": 2254, "Ġpeace": 2255, "Ġtea": 2256, "ose": 2257, "Ġgrumpy": 2258, "Ġdrew": 2259, "Ġlanded": 2260, "ĠN": 2261, "Ġselfish": 2262, "Ġce": 2263, "Ġash": 2264, "Ġban": 2265, "St": 2266, "Ġlater": 2267, "Ġoven": 2268, "Ġtakes": 2269, "Ġpan": 2270, "to": 2271, "Ġchange": 2272, "Ġbeak": 2273, "Ġsour": 2274, "Ġspe": 2275, "Ġworm": 2276, "Ġtie": 2277, "Ġjog": 2278, "Ġsheep": 2279, "Ġval": 2280, "ĠLeo": 2281, "Ġacross": 2282, "Ġmyster": 2283, "Ġwash": 2284, "Ġrad": 2285, "Ġfruits": 2286, "Ġsmooth": 2287, "ife": 2288, "Ġlegs": 2289, "ĠMolly": 2290, "ever": 2291, "kin": 2292, "Ġmissed": 2293, "ope": 2294, "Ġclouds": 2295, "Ġbought": 2296, "ĠMomo": 2297, "Ġgrate": 2298, "Ġexp": 2299, "izz": 2300, "ity": 2301, "?âĢĿ": 2302, "mer": 2303, "Ġemp": 2304, "Ġempty": 2305, "To": 2306, "pect": 2307, "Ġsticks": 2308, "Ġslid": 2309, "ery": 2310, "Ġent": 2311, "Ġcalm": 2312, "ĠDaddy": 2313, "Ġfil": 2314, "Ġmessy": 2315, "ĠCat": 2316, "Ġwatching": 2317, "ĠJill": 2318, "Ġgrateful": 2319, "box": 2320, "Ġimag": 2321, "Ġsmelly": 2322, "dge": 2323, "Ġinteresting": 2324, "Ġfing": 2325, "izzy": 2326, "Ġpuzzle": 2327, "Ġbanan": 2328, "ugg": 2329, "Ġhealthy": 2330, "iger": 2331, "ions": 2332, "Ġlay": 2333, "eth": 2334, "oop": 2335, "Ġclever": 2336, "Ġpour": 2337, "ĠBunny": 2338, "Ġjelly": 2339, "Ġsleepy": 2340, "unk": 2341, "Ġthough": 2342, "Ġseemed": 2343, "let": 2344, "Ġstep": 2345, "Ġexplain": 2346, "Ġprot": 2347, "amed": 2348, "yard": 2349, "Ġwolf": 2350, "Ġspray": 2351, "Soon": 2352, "Ġhope": 2353, "Ġign": 2354, "Ġmot": 2355, "ĠLuna": 2356, "Ġba": 2357, "Ġbackyard": 2358, "Ġfinish": 2359, "Ġalong": 2360, "Ġact": 2361, "Ġav": 2362, "Ġquest": 2363, "ars": 2364, "Ġfaces": 2365, "Ġwhole": 2366, "ĠDoggy": 2367, "Come": 2368, "llo": 2369, "Ġmed": 2370, "Ġqueen": 2371, "ward": 2372, "Ġnothing": 2373, "Ġworking": 2374, "Ġsave": 2375, "Ġsu": 2376, "Ġdogs": 2377, "Ġsmelled": 2378, "Ġlonger": 2379, "Ġfake": 2380, "Ġanyone": 2381, "Ġrocket": 2382, "Ġeasy": 2383, "iting": 2384, "Ġplate": 2385, "ĠJerry": 2386, "Ġline": 2387, "wel": 2388, "ming": 2389, "Ġsplash": 2390, "Ġtid": 2391, "Ġpin": 2392, "ocked": 2393, "Ġweak": 2394, "Ġsupp": 2395, "irpy": 2396, "Ġscar": 2397, "ment": 2398, "ĠBe": 2399, "irr": 2400, "Ġsol": 2401, "oomy": 2402, "ont": 2403, "ork": 2404, "Ġneigh": 2405, "Ġtrouble": 2406, "Ġcross": 2407, "Ġpract": 2408, "Ġjewel": 2409, "Ġwondered": 2410, "Ġlad": 2411, "bar": 2412, "Ġforgive": 2413, "Ġzoo": 2414, "Ġmaybe": 2415, "ult": 2416, "oc": 2417, "Ġlift": 2418, "Ġexplor": 2419, "Ġbossy": 2420, "Ġfeather": 2421, "ĠWith": 2422, "Ġlemon": 2423, "Ġarms": 2424, "Ġjumping": 2425, "Ġsaved": 2426, "ually": 2427, "arge": 2428, "Ġchew": 2429, "Ġneighb": 2430, "Ġshirt": 2431, "Ġgives": 2432, "Ġyog": 2433, "Ġkick": 2434, "rass": 2435, "Ġfront": 2436, "barrass": 2437, "aughter": 2438, "Ġtidy": 2439, "Ġmind": 2440, "Ġdrum": 2441, "Ġembarrass": 2442, "Ġonto": 2443, "orrow": 2444, "Ġgently": 2445, "ĠOllie": 2446, "sp": 2447, "Ġladder": 2448, "Ġwing": 2449, "Ġperson": 2450, "Ġaf": 2451, "ones": 2452, "Ġship": 2453, "Ġcrayons": 2454, "aw": 2455, "ĠMary": 2456, "Ġputs": 2457, "Ġlovely": 2458, "Ġlaw": 2459, "Ġsuch": 2460, "Ġsur": 2461, "Ġwaiting": 2462, "Ġcheer": 2463, "Ġants": 2464, "Ġmistake": 2465, "Ġplaces": 2466, "gest": 2467, "Ġswimming": 2468, "Ġbal": 2469, "Ġpizz": 2470, "onest": 2471, "Ġlarge": 2472, "ĠTheir": 2473, "ĠWhy": 2474, "Ġpointed": 2475, "Ġcleaned": 2476, "Ġstood": 2477, "Ġbounce": 2478, "Ġpool": 2479, "Ġclown": 2480, "urse": 2481, "era": 2482, "raid": 2483, "ned": 2484, "Ġfancy": 2485, "Ġdaughter": 2486, "Ġwip": 2487, "Sally": 2488, "Ġpack": 2489, "Ġafraid": 2490, "Ġbuilding": 2491, "Kitty": 2492, "ĠChirpy": 2493, "ĠMy": 2494, "Ġlazy": 2495, "ek": 2496, "Ġret": 2497, "Ġdeer": 2498, "Ġtomorrow": 2499, "Ġhonest": 2500, "Ġcozy": 2501, "And": 2502, "Ġprince": 2503, "Ġsearch": 2504, "Ġpizza": 2505, "Ġhum": 2506, "Ġreturn": 2507, "Ġplants": 2508, "My": 2509, "Ġsplashed": 2510, "Ġrich": 2511, "Ġeag": 2512, "Ġloves": 2513, "Ġscarf": 2514, "Ġmap": 2515, "ĠSomet": 2516, "Ġtrue": 2517, "Ġpretended": 2518, "aced": 2519, "Ġboring": 2520, "ina": 2521, "Ġfear": 2522, "Ġteeth": 2523, "Ġnearby": 2524, "ĠIf": 2525, "ado": 2526, "Ġgoes": 2527, "Ġanswer": 2528, "Ġfurry": 2529, "Ġsandwich": 2530, "Ġnumber": 2531, "Ġstra": 2532, "Ġlock": 2533, "Ġappeared": 2534, "icked": 2535, "ĠTV": 2536, "Ġtrust": 2537, "Ġcand": 2538, "Ġdish": 2539, "Ġgather": 2540, "Ġscreamed": 2541, "Ġsnee": 2542, "oppy": 2543, "Ġpowerful": 2544, "Ġchase": 2545, "Ġvan": 2546, "Ġimpress": 2547, "Ġwearing": 2548, "Ġboot": 2549, "Ġtool": 2550, "Ġhang": 2551, "uce": 2552, "Ġmatch": 2553, "Ġgun": 2554, "ĠTogether": 2555, "Ġmotor": 2556, "ĠGo": 2557, "Ġpri": 2558, "ĠBobby": 2559, "Ġcouch": 2560, "ĠPlease": 2561, "elp": 2562, "Ġrub": 2563, "Ġcreative": 2564, "Ġcircle": 2565, "Ġtest": 2566, "Ġstret": 2567, "oman": 2568, "vous": 2569, "Ġhello": 2570, "Ġsoap": 2571, "Ġashamed": 2572, "pa": 2573, "Ġmatter": 2574, "Ġwoman": 2575, "Ġnote": 2576, "Ġnoisy": 2577, "Ġsuccess": 2578, "Ġsold": 2579, "Ġshadow": 2580, "rag": 2581, "Ġcarried": 2582, "Ġicy": 2583, "irror": 2584, "ĠSt": 2585, "osaur": 2586, "Ġhur": 2587, "ute": 2588, "Ġner": 2589, "Ġsaf": 2590, "Ġmirror": 2591, "Ġsmiling": 2592, "Ġprint": 2593, "Ġjourney": 2594, "Ġdig": 2595, "Stop": 2596, "Ġnervous": 2597, "Ġgen": 2598, "ĠDon": 2599, "Ġglue": 2600, "Ġhero": 2601, "Ġdinosaur": 2602, "mb": 2603, "Ġprotect": 2604, "Ġtries": 2605, "Ġreg": 2606, "Ġrare": 2607, "Ġflag": 2608, "Ġap": 2609, "iff": 2610, "ĠHow": 2611, "Ġclass": 2612, "Ġcloset": 2613, "itter": 2614, "Ġchocol": 2615, "ĠBird": 2616, "Ġpolite": 2617, "Help": 2618, "Ġmel": 2619, "Ġgold": 2620, "Ġdrank": 2621, "ĠBenny": 2622, "Ġpres": 2623, "Ġlamp": 2624, "Ġbald": 2625, "Ġlead": 2626, "Ġpoor": 2627, "Ġtick": 2628, "Ġeager": 2629, "ual": 2630, "isp": 2631, "ndpa": 2632, "Ġthese": 2633, "Ġfat": 2634, "Ġknee": 2635, "Ġhar": 2636, "nic": 2637, "Ġfold": 2638, "Ġdisco": 2639, "ĠSp": 2640, "Ġshark": 2641, "Ġcap": 2642, "Ġfeet": 2643, "imp": 2644, "Ġsco": 2645, "Ġpicnic": 2646, "scape": 2647, "Ġwand": 2648, "Ġelder": 2649, "Ġclap": 2650, "issors": 2651, "Ġbrush": 2652, "Ġkicked": 2653, "Ġbean": 2654, "Ġdancing": 2655, "Ġchocolate": 2656, "Ġballoons": 2657, "Ġrespect": 2658, "Ġembarrassed": 2659, "Ġpump": 2660, "Ġgate": 2661, "Ġmysterious": 2662, "Ġelderly": 2663, "Ġrelie": 2664, "Ġcrown": 2665, "Ġmarch": 2666, "Ġpeaceful": 2667, "Ġbridge": 2668, "Ġtele": 2669, "owed": 2670, "Ġsque": 2671, "Ġpainted": 2672, "Ġwhisp": 2673, "ensive": 2674, "Ġclock": 2675, "ventually": 2676, "Ġgigg": 2677, "ote": 2678, "Ġscissors": 2679, "Ġpay": 2680, "Ġexpensive": 2681, "Ġtape": 2682, "ĠSometimes": 2683, "Ġgener": 2684, "Ġlog": 2685, "Ġword": 2686, "Ġwis": 2687, "Ġteam": 2688, "Ġmixed": 2689, "lebr": 2690, "Ġcri": 2691, "Ġtowel": 2692, "Ġthick": 2693, "Ġstir": 2694, "arl": 2695, "Ġwhale": 2696, "Ġsugar": 2697, "rob": 2698, "Tommy": 2699, "Ġcelebr": 2700, "Ġtent": 2701, "Ġknocked": 2702, "Ġbecome": 2703, "ragile": 2704, "Ġdizzy": 2705, "Ġdecor": 2706, "any": 2707, "Ġcage": 2708, "Ġyelled": 2709, "Ġbake": 2710, "ĠBr": 2711, "Ġgroup": 2712, "Ġcorner": 2713, "Ġweird": 2714, "Ġrough": 2715, "Ġwouldn": 2716, "Ġspread": 2717, "Ġlose": 2718, "Dad": 2719, "ĠBear": 2720, "Ġvase": 2721, "Ġhorn": 2722, "Ġscare": 2723, "Ġdrawing": 2724, "ced": 2725, "Ġfragile": 2726, "ĠTiny": 2727, "Ġtasted": 2728, "Ġsock": 2729, "ser": 2730, "Ġmighty": 2731, "getable": 2732, "Ġter": 2733, "Ġboard": 2734, "Ġchicken": 2735, "Ġgenerous": 2736, "Ġbarn": 2737, "Ġvegetable": 2738, "lves": 2739, "ness": 2740, "Ġmoms": 2741, "Ġclear": 2742, "ustr": 2743, "Ġpray": 2744, "bborn": 2745, "Ġ3": 2746, "Ġblow": 2747, "Ġnorm": 2748, "Ġincred": 2749, "robe": 2750, "Ġspace": 2751, "ym": 2752, "Ġorganized": 2753, "Ġadm": 2754, "Ġnormal": 2755, "Ġstubborn": 2756, "Ġglass": 2757, "Ġbalance": 2758, "Ġfamous": 2759, "Ġbranches": 2760, "Ġgas": 2761, "Ġterri": 2762, "ĠMama": 2763, "Ġpresent": 2764, "Ġmic": 2765, "Ġyarn": 2766, "Ġincredible": 2767, "Ġwrap": 2768, "ĠSome": 2769, "ume": 2770, "Ġwagon": 2771, "Ġfrustr": 2772, "alous": 2773, "airs": 2774, "Ġrelieved": 2775, "Ġjealous": 2776, "Ġignor": 2777, "Ġcreature": 2778, "Ġtaught": 2779, "Ġber": 2780, "Ġfeed": 2781, "Ġguess": 2782, "Ġberries": 2783, "Ġwake": 2784, "Ġunus": 2785, "Ġwhich": 2786, "Ġjet": 2787, "Ġmis": 2788, "ighed": 2789, "port": 2790, "Ġunusual": 2791, "cient": 2792, "Ġmountain": 2793, "Ġeggs": 2794, "Ġcab": 2795, "fic": 2796, "lace": 2797, "Ġswan": 2798, "Ġfine": 2799, "Ġhears": 2800, "Ġfright": 2801, "Ġdiffic": 2802, "Ġfrustrated": 2803, "Ġexploring": 2804, "ique": 2805, "Ġancient": 2806, "Ġwashed": 2807, "Ġfool": 2808, "Ġtwist": 2809, "Ġnecklace": 2810, "Ġsunf": 2811, "Where": 2812, "dle": 2813, "Ġroar": 2814, "Ġspoiled": 2815, "Ġunique": 2816, "Ġdifficult": 2817, "Ġfier": 2818, "Ġunderstood": 2819, "Ġfierce": 2820, "ĠTr": 2821, "Ġwrote": 2822, "bby": 2823, "Ġdiscover": 2824, "Ġcone": 2825, "Ġcabin": 2826, "orry": 2827, "Ġhose": 2828, "Ġrose": 2829, "Ġpolice": 2830, "Ġspent": 2831, "kn": 2832, "ond": 2833, "ray": 2834, "Ġdug": 2835, "Ġsell": 2836, "Ġdead": 2837, "Ġ'": 2838, "Ġtells": 2839, "Ġstraw": 2840, "Ġburn": 2841, "alk": 2842, "Ġterrible": 2843, "Ġexam": 2844, "Ġtoug": 2845, "Ġjam": 2846, "Ġham": 2847, "ony": 2848, "Ġstat": 2849, "Ġgoat": 2850, "Ġcrazy": 2851, "Ġcomfortable": 2852, "Ġbloom": 2853, "Ġfinding": 2854, "known": 2855, "Ġunl": 2856, "Ġfrightened": 2857, "Ġadd": 2858, "Ġwaves": 2859, "Ġord": 2860, "Ġsquare": 2861, "Ġbreath": 2862, "shine": 2863, "Ġtough": 2864, "und": 2865, "Ġfoolish": 2866, "Ġpumpkin": 2867, "Ġdull": 2868, "Ġstuff": 2869, "ĠDucky": 2870, "cil": 2871, "Ġgloomy": 2872, "Ġbathroom": 2873, "Ġunknown": 2874, "Ġmeasure": 2875, "live": 2876, "Ġending": 2877, "Ġclay": 2878, "Ġpotato": 2879, "Ġbitter": 2880, "Ġtiger": 2881, "Ġpencil": 2882, "apped": 2883, "xible": 2884, "Ġtoast": 2885, "Ġsearched": 2886, "Ġdrop": 2887, "Ġdove": 2888, "Ġcats": 2889, "Together": 2890, "Ġind": 2891, "Ġnosy": 2892, "ĠPe": 2893, "Ġchest": 2894, "Ġpir": 2895, "Ġshoe": 2896, "Ġfinger": 2897, "Ġcher": 2898, "Ġsunshine": 2899, "Ġstatue": 2900, "iant": 2901, "Ġbubbles": 2902, "Ġpaws": 2903, "yal": 2904, "Ġuseful": 2905, "Ġclum": 2906, "Ġthankful": 2907, "Ġcollect": 2908, "Ġyourself": 2909, "Ġwitch": 2910, "reen": 2911, "Ġcovered": 2912, "Ġstrawber": 2913, "ĠBrown": 2914, "als": 2915, "Ġsword": 2916, "Ġasking": 2917, "Ġjoined": 2918, "Ġvalue": 2919, "ĠAl": 2920, "Ġsalad": 2921, "Here": 2922, "Ġdelicate": 2923, "Ġbody": 2924, "anged": 2925, "Ġstri": 2926, "Ġclumsy": 2927, "Ġnuts": 2928, "com": 2929, "ĠElla": 2930, "Ġshoot": 2931, "Ġexciting": 2932, "Ġsunflower": 2933, "Every": 2934, "gu": 2935, "light": 2936, "Me": 2937, "Ġsolve": 2938, "Ġtomato": 2939, "Ġlif": 2940, "Ġmov": 2941, "Ġwaff": 2942, "Ġyours": 2943, "Ġhairy": 2944, "corn": 2945, "Ġtrick": 2946, "Ġwealthy": 2947, "ĠWill": 2948, "Ġflexible": 2949, "Ġthirst": 2950, "Jim": 2951, "Ġmask": 2952, "unn": 2953, "Ġloyal": 2954, "umpet": 2955, "inky": 2956, "Ġmoving": 2957, "Ġadventur": 2958, "Ġbanana": 2959, "Ġtrumpet": 2960, "Ġshore": 2961, "Ġbored": 2962, "Ġexplained": 2963, "erp": 2964, "lliant": 2965, "Ġnods": 2966, "bled": 2967, "Ġcro": 2968, "Ġadventurous": 2969, "Ġpepper": 2970, "Ġbrilliant": 2971, "Ġseeds": 2972, "Ġthirsty": 2973, "Ġmuff": 2974, "selves": 2975, "ĠMany": 2976, "Ġaunt": 2977, "ground": 2978, "Who": 2979, "Ġneighbor": 2980, "ory": 2981, "Ġpopcorn": 2982, "ĠJimmy": 2983, "ilt": 2984, "ĠAndy": 2985, "ĠRex": 2986, "Ġasleep": 2987, "gust": 2988, "ĠWhile": 2989, "Ġmarket": 2990, "Ġrelax": 2991, "ying": 2992, "Ġsuit": 2993, "Ġstones": 2994, "inal": 2995, "Ġdepend": 2996, "Ġlab": 2997, "Ġdisgust": 2998, "Mum": 2999, "Ġorig": 3000, "Ġboats": 3001, "Ġzip": 3002, "Ġmedic": 3003, "Ġrat": 3004, "ungle": 3005, "Ġstage": 3006, "Ġknife": 3007, "Ġacorn": 3008, "Ġhay": 3009, "Ġchanged": 3010, "Ġharm": 3011, "ident": 3012, "Ġmole": 3013, "Ġcheap": 3014, "Ġcries": 3015, "Ġarrow": 3016, "Ġshiver": 3017, "Ġknowing": 3018, "iddle": 3019, "Ġfrown": 3020, "Ġflash": 3021, "Ġjolly": 3022, "Ġmedicine": 3023, "Ġsnacks": 3024, "Ġjungle": 3025, "Ġhats": 3026, "ĠInstead": 3027, "anut": 3028, "Ġfearful": 3029, "Ġshine": 3030, "Ġoriginal": 3031, "Ġgem": 3032, "Ġstamp": 3033, "Ġenorm": 3034, "Ġenormous": 3035, "Ġgoose": 3036, "Inside": 3037, "Ġdisgusting": 3038, "If": 3039, "Ġfour": 3040, "ict": 3041, "Ġfig": 3042, "Ġsmaller": 3043, "ĠTw": 3044, "ĠU": 3045, "Ġtimes": 3046, "ĠYour": 3047, "Ġjeep": 3048, "Ġvegetables": 3049, "met": 3050, "Ġsquee": 3051, "How": 3052, "Ġremind": 3053, "Ġpige": 3054, "Ġcube": 3055, "Ġcounted": 3056, "Ġcaterp": 3057, "Ġcaterpill": 3058, "iness": 3059, "Ġhelmet": 3060, "lph": 3061, "ates": 3062, "mbre": 3063, "land": 3064, "Ġumbre": 3065, "Ġcam": 3066, "Ġdependable": 3067, "pes": 3068, "Ġmiddle": 3069, "most": 3070, "Ġindepend": 3071, "edient": 3072, "ĠNo": 3073, "Ġeng": 3074, "Ġbottom": 3075, "Ġcareless": 3076, "Ġserious": 3077, "Ġref": 3078, "Ġcarrots": 3079, "Ġparrot": 3080, "Ġdolph": 3081, "Ġgar": 3082, "Ġperform": 3083, "Ġalmost": 3084, "Sorry": 3085, "Ġmelon": 3086, "pid": 3087, "Ġpainting": 3088, "aken": 3089, "Ġobedient": 3090, "Ġescape": 3091, "Ġmeal": 3092, "ti": 3093, "Ġsighed": 3094, "Ġchoose": 3095, "Ġbedroom": 3096, "Ġindependent": 3097, "Ġheal": 3098, "Ġhammer": 3099, "Ġslipped": 3100, "Ġcollar": 3101, "Ġgum": 3102, "Ġimpressive": 3103, "Ġfridge": 3104, "host": 3105, "Ġstove": 3106, "Ġlow": 3107, "Ġmagn": 3108, "Ġstupid": 3109, "Ġborrow": 3110, "axi": 3111, "enny": 3112, "Ġdesign": 3113, "Ġfork": 3114, "Ġstudy": 3115, "ours": 3116, "Ġcost": 3117, "Ġguit": 3118, "Ġhouses": 3119, "Ġcaterpillar": 3120, "Ġmailbox": 3121, "het": 3122, "Are": 3123, "Ġscr": 3124, "dile": 3125, "codile": 3126, "Ġfountain": 3127, "Ġlifted": 3128, "Ġtaken": 3129, "iable": 3130, "Ġdough": 3131, "oto": 3132, "Ġsuccessful": 3133, "Ġflute": 3134, "Ġspotted": 3135, "Ġghost": 3136, "Ġbuilt": 3137, "Ġer": 3138, "Ġdest": 3139, "Ġfilthy": 3140, "Ġrecord": 3141, "Ġtaxi": 3142, "Ġfis": 3143, "Ġpant": 3144, "erable": 3145, "Ġshows": 3146, "oin": 3147, "aghet": 3148, "aghetti": 3149, "Ġhopping": 3150, "Ġprize": 3151, "Ġsauce": 3152, "Ġrh": 3153, "Ġisland": 3154, "urkey": 3155, "Ġgets": 3156, "ipe": 3157, "Ġbelonged": 3158, "amond": 3159, "Ġspaghetti": 3160, "Ġcompet": 3161, "Ġcrayon": 3162, "Ġmiserable": 3163, "asses": 3164, "Ġspring": 3165, "Molly": 3166, "Ġhoop": 3167, "There": 3168, "Ġguitar": 3169, "Ġdiamond": 3170, "Ġcrocodile": 3171, "Ġcryst": 3172, "Ġraced": 3173, "Ġtied": 3174, "Ġturkey": 3175, "Ġmoder": 3176, "Ġjug": 3177, "Ġgarage": 3178, "Ġlean": 3179, "Ġcere": 3180, "Ġcheerful": 3181, "ĠSn": 3182, "Ġumbrella": 3183, "Ġplayful": 3184, "Ġpebb": 3185, "Ġpopular": 3186, "Ġtriang": 3187, "Ġcrawled": 3188, "Ġtor": 3189, "Ġwander": 3190, "Ġmodern": 3191, "Ġthoughtful": 3192, "Ġbatter": 3193, "Ġdisappoin": 3194, "Ġsil": 3195, "Ġcrane": 3196, "Ġengine": 3197, "ages": 3198, "Ġpeanut": 3199, "Ġavoc": 3200, "Ġang": 3201, "Ġcandle": 3202, "Ġquar": 3203, "io": 3204, "Ġneeds": 3205, "ĠTrue": 3206, "Ġscoot": 3207, "Ġmovie": 3208, "Ġwheat": 3209, "Ġraven": 3210, "Ġmagnet": 3211, "Ġanx": 3212, "Ġmeant": 3213, "Ġcereal": 3214, "Ġanxious": 3215, "Ġtire": 3216, "Ġsink": 3217, "Ġtooth": 3218, "Ġruined": 3219, "Ġsteal": 3220, "Ġkissed": 3221, "aser": 3222, "Ġpants": 3223, "Ġcop": 3224, "cles": 3225, "Ġyaw": 3226, "Ġtwig": 3227, "Ġpicks": 3228, "appy": 3229, "Ġscale": 3230, "inary": 3231, "llip": 3232, "llipop": 3233, "Ġcrack": 3234, "Ġhurts": 3235, "Ġpress": 3236, "Ġpian": 3237, "Ġbelt": 3238, "Ġcrystal": 3239, "Ġreliable": 3240, "Ġpassed": 3241, "Ġrug": 3242, "Ġlollipop": 3243, "cut": 3244, "Ġquarrel": 3245, "Ġcamera": 3246, "aff": 3247, "Ġpiano": 3248, "Ġtank": 3249, "Ġfigure": 3250, "Ġrag": 3251, "Ġharder": 3252, "Ġbrace": 3253, "Ġinvited": 3254, "ilty": 3255, "cean": 3256, "Ġguilty": 3257, "atch": 3258, "Ġocean": 3259, "Jane": 3260, "zed": 3261, "Ġswe": 3262, "Ġtorn": 3263, "Ġcompetit": 3264, "Ġnail": 3265, "Ġtricks": 3266, "Ġstanding": 3267, "Ġhumble": 3268, "Ġones": 3269, "Ġcharm": 3270, "Ġhelps": 3271, "edy": 3272, "icop": 3273, "icopter": 3274, "Ġlocked": 3275, "Ġcact": 3276, "Ġpigeon": 3277, "Ġcomb": 3278, "Ġfluffy": 3279, "Ġusing": 3280, "Ġhelicopter": 3281, "Ġsmoke": 3282, "Ġharmless": 3283, "Ġdisappointed": 3284, "ĠJenny": 3285, "Ġrid": 3286, "Mama": 3287, "Ġdust": 3288, "Ġmush": 3289, "comfortable": 3290, "Ġuncomfortable": 3291, "Ġgrace": 3292, "Ġdeaf": 3293, "acket": 3294, "Ġears": 3295, "Ġlicked": 3296, "Ġhelpless": 3297, "Ġtroubled": 3298, "cident": 3299, "Ġroof": 3300, "Ġregular": 3301, "hip": 3302, "ĠEven": 3303, "Ġneedle": 3304, "Ġanswered": 3305, "Ġshrimp": 3306, "Ġcactus": 3307, "ube": 3308, "Ġload": 3309, "Ġwrapped": 3310, "Ġvine": 3311, "Ġlit": 3312, "Ġliz": 3313, "Timmy": 3314, "Their": 3315, "Ġflashlight": 3316, "Ġjacket": 3317, "Ġknot": 3318, "Ġtunn": 3319, "Ġwire": 3320, "Ġtunnel": 3321, "Ġpale": 3322, "Ġpersist": 3323, "Ġtears": 3324, "Ġloop": 3325, "ĠSammy": 3326, "Ġyogurt": 3327, "Ġcoins": 3328, "Ġcharming": 3329, "ither": 3330, "iv": 3331, "pack": 3332, "Ġenv": 3333, "Ġspill": 3334, "ellig": 3335, "Ġmushroom": 3336, "Ġpipe": 3337, "Ġspend": 3338, "Ġtap": 3339, "Ġrep": 3340, "Ġcarp": 3341, "Ġintellig": 3342, "Ġangel": 3343, "Ġrode": 3344, "Ġwalks": 3345, "Ġcomput": 3346, "Ġgiving": 3347, "rill": 3348, "ulu": 3349, "Ġspeed": 3350, "Ġblueber": 3351, "Ġcomet": 3352, "Ġshape": 3353, "Ġticket": 3354, "Ġhappiness": 3355, "Ġboys": 3356, "Ġmill": 3357, "Ġfriendship": 3358, "Ġpoured": 3359, "ging": 3360, "Ġradio": 3361, "Ġtag": 3362, "Ġharsh": 3363, "Ġwhispered": 3364, "Ġaccident": 3365, "assion": 3366, "Ġordinary": 3367, "Ġcarpet": 3368, "Ġcreate": 3369, "ubby": 3370, "Ġpow": 3371, "Ġdiary": 3372, "Ġshade": 3373, "Bobo": 3374, "Ġdolphin": 3375, "Ġsle": 3376, "Ġbeet": 3377, "Ġhalf": 3378, "atter": 3379, "Ġlizard": 3380, "Ġpersistent": 3381, "Ġtube": 3382, "Ġcoo": 3383, "Ġnoteb": 3384, "ĠOK": 3385, "Ġnotebook": 3386, "Ġchubby": 3387, "Ġcompassion": 3388, "Ġmug": 3389, "Ġdelight": 3390, "Ġvide": 3391, "Ġcomputer": 3392, "Ġhook": 3393, "Ġpasta": 3394, "Ġpengu": 3395, "uth": 3396, "Ġrestless": 3397, "Ġlibr": 3398, "Ġscreen": 3399, "coa": 3400, "ĠJake": 3401, "Ġoffice": 3402, "Ġtrunk": 3403, "Ġintelligent": 3404, "cycle": 3405, "lcan": 3406, "Ġsquash": 3407, "Ġforward": 3408, "anger": 3409, "Ġsheet": 3410, "ĠToday": 3411, "Ġtriangle": 3412, "Ġhaircut": 3413, "Ġquestion": 3414, "Ġreturned": 3415, "Ġavocado": 3416, "Ġpracticed": 3417, "Ġnod": 3418, "Ġscooter": 3419, "lcano": 3420, "Ġoat": 3421, "ulif": 3422, "Ġvi": 3423, "ĠSh": 3424, "ccol": 3425, "Ġorder": 3426, "Ġdestro": 3427, "ccoli": 3428, "Ġlying": 3429, "Ġdeliver": 3430, "Ġbracelet": 3431, "Ġplanet": 3432, "Ġmitten": 3433, "cream": 3434, "Ġsailed": 3435, "Ġjellyfish": 3436, "Ġsoldier": 3437, "Ġeraser": 3438, "Ġhunt": 3439, "Ġmelt": 3440, "Ġpoem": 3441, "Ġparade": 3442, "Ġdesk": 3443, "Ġstronger": 3444, "Ġpro": 3445, "Ġcaulif": 3446, "Ġgifted": 3447, "Ġquestions": 3448, "Ġstream": 3449, "Ġweek": 3450, "Ġcrawl": 3451, "atient": 3452, "essie": 3453, "Ġsleeping": 3454, "Ġthread": 3455, "omes": 3456, "Ġstretch": 3457, "asing": 3458, "Ġinse": 3459, "Ġvolcano": 3460, "Ġfeathers": 3461, "Ġmop": 3462, "azz": 3463, "aze": 3464, "Ġcauliflower": 3465, "opard": 3466, "Ġtrack": 3467, "Ġenvious": 3468, "Ġspun": 3469, "ief": 3470, "Ġbull": 3471, "vator": 3472, "Ġacce": 3473, "ped": 3474, "Ġcocoa": 3475, "Ġelevator": 3476, "Ġbeetle": 3477, "ye": 3478, "Ġenc": 3479, "ĠBuzz": 3480, "Ġways": 3481, "Ġbees": 3482, "Ġclub": 3483, "Ġhappening": 3484, "Ġguard": 3485, "dom": 3486, "Ġboxes": 3487, "Ġdreams": 3488, "Ġtravel": 3489, "Ġbarber": 3490, "Ġeventually": 3491, "Ġbroccoli": 3492, "Ġcompetitive": 3493, "Ġjudge": 3494, "Ġsung": 3495, "Ġbandage": 3496, "Go": 3497, "Ġbin": 3498, "ital": 3499, "Ġalert": 3500, "Ġskin": 3501, "umbers": 3502, "ĠFr": 3503, "Ġwalls": 3504, "Ġslept": 3505, "Ġviol": 3506, "Ġleopard": 3507, "Ġchalk": 3508, "Ġonion": 3509, "Ġhosp": 3510, "Ġspeak": 3511, "Ġcompassionate": 3512, "Ġinsect": 3513, "Ġbicy": 3514, "Ġpit": 3515, "oby": 3516, "Ġsniff": 3517, "Ġgraceful": 3518, "zzy": 3519, "Ġhospital": 3520, "Ġnicely": 3521, "Ġimpatient": 3522, "rework": 3523, "Ġenvel": 3524, "Ġador": 3525, "Ġdistant": 3526, "Ġmuffin": 3527, "isted": 3528, "Ġcelebrate": 3529, "Ġed": 3530, "Ġbiggest": 3531, "ĠPipp": 3532, "Sarah": 3533, "Ġwheels": 3534, "Ġunlock": 3535, "Ġcush": 3536, "Ġearth": 3537, "ulb": 3538, "Ġmeat": 3539, "Ġexcite": 3540, "lasses": 3541, "Ġdecide": 3542, "Ġattract": 3543, "Ġmotorcycle": 3544, "Ġsunglasses": 3545, "Ġnumbers": 3546, "Ġpeach": 3547, "ĠPoppy": 3548, "Ġtrucks": 3549, "Ġrubbed": 3550, "Ġvest": 3551, "Ġbounced": 3552, "Ġraft": 3553, "Ġpolish": 3554, "Ġlouder": 3555, "Ġviolin": 3556, "ĠLulu": 3557, "Ġbubble": 3558, "Ġcurt": 3559, "Ġshield": 3560, "rage": 3561, "Ġchain": 3562, "Ġadorable": 3563, "Ġcompl": 3564, "Ġbulb": 3565, "Ġhomes": 3566, "Ġcurtain": 3567, "Ġuncle": 3568, "Ġdestroy": 3569, "Ġtruth": 3570, "Ġtrap": 3571, "Ġcounting": 3572, "Ġskip": 3573, "Ġfirework": 3574, "Ġcupboard": 3575, "erop": 3576, "Ġtem": 3577, "eropl": 3578, "Ġsend": 3579, "Ġbump": 3580, "Ġtray": 3581, "Ġdeter": 3582, "Ġcase": 3583, "Ġpony": 3584, "Ġattractive": 3585, "Ġaeropl": 3586, "Ġbase": 3587, "Ġshut": 3588, "Ġlearning": 3589, "Ġskipped": 3590, "Ġsurf": 3591, "usie": 3592, "tern": 3593, "Ġmetal": 3594, "Ġthief": 3595, "Ġstack": 3596, "Ġmatt": 3597, "Ġsneeze": 3598, "Ġdeterm": 3599, "urb": 3600, "Ġglove": 3601, "Billy": 3602, "Ġthu": 3603, "Ġsort": 3604, "Ġfilm": 3605, "Ġpebble": 3606, "Ġcooked": 3607, "Ġforth": 3608, "Ġlively": 3609, "Ġcricket": 3610, "Ġsaying": 3611, "Ġwiped": 3612, "Ġbehave": 3613, "ating": 3614, "Ġrod": 3615, "Ġtroph": 3616, "Ġcleaning": 3617, "Ġignorant": 3618, "Ġthemselves": 3619, "ebra": 3620, "Ġbushes": 3621, "Ġdisturb": 3622, "Ġzipp": 3623, "aged": 3624, "Gra": 3625, "Ġspinning": 3626, "chair": 3627, "igator": 3628, "Ġhedge": 3629, "Ġresc": 3630, "Ġwishes": 3631, "Ġtummy": 3632, "Ġspear": 3633, "Ġshowing": 3634, "Ġbuttons": 3635, "umbled": 3636, "Ġfather": 3637, "ete": 3638, "Ġlights": 3639, "Ġscatter": 3640, "work": 3641, "Ġarmchair": 3642, "Ġmattress": 3643, "Ġcartoon": 3644, "Ġwaffle": 3645, "Ġsaus": 3646, "Ġlaughs": 3647, "Ġuniver": 3648, "Ġink": 3649, "Ġstranger": 3650, "Ġenvelope": 3651, "ĠEmily": 3652, "Ġtrophy": 3653, "Ġspell": 3654, "Ġpointing": 3655, "Ġalligator": 3656, "Ġfolder": 3657, "ject": 3658, "Ġprun": 3659, "ention": 3660, "Ġzebra": 3661, "Ġherb": 3662, "Ġenth": 3663, "Ġveil": 3664, "Ġskull": 3665, "aky": 3666, "Ġpattern": 3667, "Ġcomplet": 3668, "offe": 3669, "Ġgrown": 3670, "Ġmarry": 3671, "Ġbicycle": 3672, "offee": 3673, "Ġgrowl": 3674, "ision": 3675, "Ġyach": 3676, "Ġimpro": 3677, "Ġfu": 3678, "ĠPolly": 3679, "Ġpirate": 3680, "Ġlibrary": 3681, "Ġtemp": 3682, "Ġcity": 3683, "Ġloudly": 3684, "Ġpurse": 3685, "Ġpenny": 3686, "Ġprep": 3687, "usia": 3688, "Ġjournal": 3689, "Ġcomplain": 3690, "Ġenthusia": 3691, "Ġkay": 3692, "Ġpoke": 3693, "Ġcable": 3694, "Ġple": 3695, "bul": 3696, "Ġknows": 3697, "Ġrice": 3698, "Ġpost": 3699, "Ġstrawberry": 3700, "Ġedge": 3701, "Ġdrawings": 3702, "elery": 3703, "dest": 3704, "bulance": 3705, "Ġambulance": 3706, "Ġframe": 3707, "ĠFo": 3708, "Ġonce": 3709, "Ġmagaz": 3710, "Ġdecorate": 3711, "ĠTweet": 3712, "Ġsplit": 3713, "Ġencou": 3714, "Ġwool": 3715, "uring": 3716, "Ġstation": 3717, "Ġnurse": 3718, "Ġbags": 3719, "Ġbrothers": 3720, "Ġsuggest": 3721, "Ġyacht": 3722, "Ġyoga": 3723, "Ġroot": 3724, "ĠLittle": 3725, "Ġsoar": 3726, "ito": 3727, "Ġcoffee": 3728, "Ġcelery": 3729, "Ġradish": 3730, "Ġaeroplane": 3731, "Ġrot": 3732, "ric": 3733, "Ġyet": 3734, "Ġvideo": 3735, "Ġglowing": 3736, "Ġsteak": 3737, "lies": 3738, "ushed": 3739, "Ġcamp": 3740, "quito": 3741, "Ġkayak": 3742, "otter": 3743, "Ġoy": 3744, "Ġfalls": 3745, "Ġflea": 3746, "Ġgathered": 3747, "Ġotter": 3748, "Ġplayground": 3749, "htub": 3750, "Ġknight": 3751, "Ġbathtub": 3752, "Ġteleph": 3753, "Ġdive": 3754, "Ġcoal": 3755, "Ġmos": 3756, "Ġshells": 3757, "Ġsweater": 3758, "Ġrepe": 3759, "Ġled": 3760, "Ġpun": 3761, "ĠMum": 3762, "Ġcushion": 3763, "Ġcob": 3764, "Ġpine": 3765, "ilot": 3766, "Ġitself": 3767, "iew": 3768, "Ġbarrel": 3769, "Ġmosquito": 3770, "Ġseal": 3771, "Ġdriving": 3772, "Ġstrugg": 3773, "Ġtelephone": 3774, "aving": 3775, "ĠRose": 3776, "Jimmy": 3777, "Ġmodest": 3778, "Ġsalt": 3779, "Ġsupport": 3780, "?\".": 3781, "Ġtripped": 3782, "Ġmeadow": 3783, "Ġview": 3784, "Ġmeans": 3785, "utes": 3786, "Ġswitch": 3787, "web": 3788, "Ġmild": 3789, "Ġpole": 3790, "Ġcalling": 3791, "ĠBirdy": 3792, "Give": 3793, "Ġmixer": 3794, "Ġcobweb": 3795, "par": 3796, "Ġwife": 3797, "Ġgolf": 3798, "Ġwhenever": 3799, "ceed": 3800, "nam": 3801, "Ġpowder": 3802, ",âĢĿ": 3803, "case": 3804, "ait": 3805, "head": 3806, "Ġmissile": 3807, "Ġreading": 3808, "Ġarg": 3809, "ĠTina": 3810, "Ġhotel": 3811, "Ġwallet": 3812, "Ġmakeup": 3813, "Ġmessage": 3814, "Ġstaff": 3815, "Ġfootball": 3816, "Ġpenguin": 3817, "we": 3818, "esday": 3819, "Ġmanaged": 3820, "Ġfisher": 3821, "la": 3822, "Ġslides": 3823, "Ġribb": 3824, "Ġhipp": 3825, "Ġpilot": 3826, "ĠPeter": 3827, "ache": 3828, "Ġhall": 3829, "Ġoak": 3830, "Ġminutes": 3831, "Ġadded": 3832, "Ġbarking": 3833, "Ġrepair": 3834, "Well": 3835, "nament": 3836, "etty": 3837, "Ġornament": 3838, "Ġdetermined": 3839, "Ġsucceed": 3840, "time": 3841, "Ġtear": 3842, "Ġfireman": 3843, "Ġattic": 3844, "ĠDan": 3845, "ophone": 3846, "seum": 3847, "Ġshort": 3848, "anda": 3849, "nger": 3850, "illa": 3851, "Ġmarble": 3852, "Ġkindness": 3853, "Ġquit": 3854, "Ġdisappeared": 3855, "ĠPeople": 3856, "aroo": 3857, "Ġthose": 3858, "Ġmuseum": 3859, "Ġeye": 3860, "angaroo": 3861, "Ġlime": 3862, "istol": 3863, "ines": 3864, "Ġcell": 3865, "Jill": 3866, "old": 3867, "stic": 3868, "Ġlaund": 3869, "Ġsandbox": 3870, "Ġsailor": 3871, "Ġlaundry": 3872, "Ġeither": 3873, "Ġrolling": 3874, "irit": 3875, "Ġhurry": 3876, "Ġthunder": 3877, "Ġearly": 3878, "asher": 3879, "Ġmagazine": 3880, "Ġoil": 3881, "Ġshocked": 3882, "Ġenthusiastic": 3883, "Ġkangaroo": 3884, "Bye": 3885, "Ġgiggled": 3886, "Ġsepar": 3887, "Ġcups": 3888, "Ġgrapes": 3889, "Ġfisherman": 3890, "washer": 3891, "ucet": 3892, "Ġsight": 3893, "hic": 3894, "Ġstairs": 3895, "Ġcolour": 3896, "Ġvehic": 3897, "Ġbananas": 3898, "Ġzipper": 3899, "Ġhippo": 3900, "Ġpistol": 3901, "Ġknock": 3902, "Ġlaser": 3903, "Ġfaucet": 3904, "Ġchess": 3905, "ĠRob": 3906, "iron": 3907, "Ġpatch": 3908, "Ġtask": 3909, "Ġdishwasher": 3910, "Ġtemple": 3911, "Ġmath": 3912, "ĠLook": 3913, "Ġten": 3914, "leton": 3915, "keleton": 3916, "Ġtools": 3917, "Ġflame": 3918, "Ġgrandpa": 3919, "Ġperm": 3920, "Ġsafely": 3921, "Ġstumbled": 3922, "Ġscrew": 3923, "ready": 3924, "Ġbathrobe": 3925, "Ġdess": 3926, "Ġcooking": 3927, "Ġbikes": 3928, "apers": 3929, "Ġpee": 3930, "Ġow": 3931, "Ġreward": 3932, "ctory": 3933, "cing": 3934, "rophone": 3935, "Ġaut": 3936, "Ġphoto": 3937, "Re": 3938, "arian": 3939, "Ġenjoying": 3940, "Joe": 3941, "Ġvend": 3942, "Fluffy": 3943, "Ġnewsp": 3944, "Ġalready": 3945, "Ġremain": 3946, "ckey": 3947, "Ġhockey": 3948, "Ġresist": 3949, "Ġoyster": 3950, "ney": 3951, "Ġok": 3952, "Ġflour": 3953, "Ġholds": 3954, "Ġfactory": 3955, "Ġmicrophone": 3956, "Ġrever": 3957, "Ġnovel": 3958, "Ġdrawer": 3959, "Ġpacked": 3960, "'d": 3961, "Al": 3962, "Ġoft": 3963, "Ġmaze": 3964, "Ġitch": 3965, "ugged": 3966, "Ġcardboard": 3967, "Ġoften": 3968, "Ġfive": 3969, "ron": 3970, "Ġpastry": 3971, "Ġhours": 3972, "Ġpal": 3973, "ĠMiss": 3974, "Ġbathe": 3975, "Ġgrill": 3976, "Ġsett": 3977, "ense": 3978, "Ġhandle": 3979, "Ġopens": 3980, "bol": 3981, "ailable": 3982, "Ġcane": 3983, "Ġmule": 3984, "ymbol": 3985, "keep": 3986, "Ġmarched": 3987, "Ġhanging": 3988, "ĠSnow": 3989, "See": 3990, "imney": 3991, "Ġrake": 3992, "Ġvendor": 3993, "Ġtut": 3994, "Ġmem": 3995, "Ġhunter": 3996, "play": 3997, "ĠHere": 3998, "obile": 3999, "Ġrise": 4000, "omobile": 4001, "Ġfrogs": 4002, "Ġavailable": 4003, "Ġautomobile": 4004, "Ġthinking": 4005, "Ġcomplete": 4006, "Ġskeleton": 4007, "Ġgear": 4008, "Ġfastest": 4009, "Em": 4010, "Ġjunk": 4011, "Ġpicking": 4012, "Ġfreez": 4013, "uper": 4014, "Ġchimney": 4015, "Ġpalace": 4016, "ination": 4017, "Ġanch": 4018, "Ġcooler": 4019, "ĠToby": 4020, "Ġpor": 4021, "Ġcherries": 4022, "Ġcostume": 4023, "Ġsilver": 4024, "Ġtutor": 4025, "urch": 4026, "ctop": 4027, "ĠPete": 4028, "Ġsteps": 4029, "Ġjuicy": 4030, "Ġur": 4031, "Ġpackage": 4032, "Ġoats": 4033, "Ġsymbol": 4034, "Ġweep": 4035, "Ġrealised": 4036, "Ġdisplay": 4037, "Ġnapkin": 4038, "Ġboots": 4039, "Ġtrail": 4040, "azor": 4041, "Ġanchor": 4042, "Ġimagine": 4043, "vet": 4044, "Ġstared": 4045, "Ġorganize": 4046, "Ġcord": 4047, "come": 4048, "Ġiron": 4049, "ĠEverywhere": 4050, "Ġfingers": 4051, "ctopus": 4052, "Ġallowed": 4053, "Ġspirit": 4054, "Ġvalu": 4055, "Ġmay": 4056, "Ġbaseball": 4057, "Ġdessert": 4058, "loo": 4059, "ĠSunny": 4060, "Ġbattery": 4061, "Ġpretending": 4062, "Ġdreamed": 4063, "Ġfog": 4064, "Ġjumps": 4065, "Ġpear": 4066, "Ġdiscovered": 4067, "Ġig": 4068, "Ġhut": 4069, "Ġlend": 4070, "Ġnotice": 4071, "Ġswinging": 4072, "Ġigloo": 4073, "Ġsne": 4074, "Ġattach": 4075, "Ġwhip": 4076, "Wait": 4077, "Ġax": 4078, "Ġtrash": 4079, "Ġblackboard": 4080, "Ġtornado": 4081, "Ġbill": 4082, "Ġstickers": 4083, "Ġagainst": 4084, "Ġminer": 4085, "Ġgor": 4086, "Ġoctopus": 4087, "Ġchurch": 4088, "arry": 4089, "Ġolive": 4090, "Ġfalling": 4091, "Ġnames": 4092, "ĠGive": 4093, "Ġsparkly": 4094, "zag": 4095, "Ġleash": 4096, "Ġlotion": 4097, "Ġexcitement": 4098, "ĠBessie": 4099, "Ġpractice": 4100, "Ġrhin": 4101, "Ġtightly": 4102, "Ġaxe": 4103, "Ġcows": 4104, "Ġpinch": 4105, "Ġspilled": 4106, "Ġporch": 4107, "vision": 4108, "Ġletters": 4109, "keeper": 4110, "ĠSpike": 4111, "igzag": 4112, "ĠSusie": 4113, "Ġgasped": 4114, "Ow": 4115, "Ġshaking": 4116, "Ġson": 4117, "Ġfile": 4118, "ature": 4119, "Ġtaller": 4120, "Ġstops": 4121, "Ġcards": 4122, "Ġfuel": 4123, "Ġcheck": 4124, "Ġtelevision": 4125, "ately": 4126, "Ġsnap": 4127, "ĠKim": 4128, "Ġmen": 4129, "Ġclimbing": 4130, "Ġspoke": 4131, "ĠPippin": 4132, "Ġimprove": 4133, "Ġholes": 4134, "ĠZip": 4135, "iches": 4136, "Ġtowers": 4137, "lu": 4138, "Ġtub": 4139, "Ġjokes": 4140, "Ġsuper": 4141, "Ġtheater": 4142, "Ġped": 4143, "Ġairport": 4144, "Ġsandwiches": 4145, "rosc": 4146, "Ġpapers": 4147, "eros": 4148, "ionary": 4149, "roscope": 4150, "Ġdistance": 4151, "Ġnewspaper": 4152, "ictionary": 4153, "Ġpressed": 4154, "Ġoffered": 4155, "vice": 4156, "drobe": 4157, "Ġwardrobe": 4158, "place": 4159, "oceros": 4160, "ured": 4161, "iest": 4162, "ik": 4163, "Ġrazor": 4164, "Ġbookcase": 4165, "Ġbookshe": 4166, "Ġsize": 4167, "Ġmedal": 4168, "Ġvaluable": 4169, "Is": 4170, "Ġroared": 4171, "aid": 4172, "Ġtelling": 4173, "ĠZoom": 4174, "Ġfreezer": 4175, "ĠBetty": 4176, "Ġbillboard": 4177, "Ġshrink": 4178, "eer": 4179, "Ġmint": 4180, "Ġsausage": 4181, "htray": 4182, "Ġpoked": 4183, "Ġrules": 4184, "Ġprov": 4185, "Ġbookshelf": 4186, "Ġneat": 4187, "Ġcircles": 4188, "Ġgorilla": 4189, "Ġgym": 4190, "Ġrhinoceros": 4191, "ĠCo": 4192, "Ġdoesn": 4193, "asis": 4194, "aches": 4195, "body": 4196, "Ġfest": 4197, "Ġcabinet": 4198, "ĠAre": 4199, "Ġfireplace": 4200, "Ġchose": 4201, "aurant": 4202, "Ġrece": 4203, "Ġrestaurant": 4204, "Ġbasketball": 4205, "Ġbeep": 4206, "Ġlie": 4207, "ival": 4208, "Ġblin": 4209, "Ġperfume": 4210, "Ġinclu": 4211, "Ġdisag": 4212, "Ġdictionary": 4213, "Ġsquirrels": 4214, "Ġobject": 4215, "Ġdreaming": 4216, "Ġrescue": 4217, "Ġgrowing": 4218, "Ġpassport": 4219, "lter": 4220, "Ġsub": 4221, "Ġoasis": 4222, "Ġashtray": 4223, "Ġgrand": 4224, "Ġdrain": 4225, "Ġhanger": 4226, "Ġshelter": 4227, "Ġmummy": 4228, "ilet": 4229, "Ġlightning": 4230, "ampoo": 4231, "Ġwipe": 4232, "Ġlabel": 4233, "Ġahead": 4234, "Ġhappier": 4235, "Ġpainter": 4236, "Ġstretched": 4237, "Ġtoilet": 4238, "Ġhung": 4239, "Ġbuckle": 4240, "Ġcomfort": 4241, "riger": 4242, "Ġbrick": 4243, "rigerator": 4244, "Ġanyway": 4245, "Ġfestival": 4246, "Ġagree": 4247, "omed": 4248, "Ġrefrigerator": 4249, "Ġhelper": 4250, "Ġreind": 4251, "fast": 4252, "Ġpopped": 4253, "cu": 4254, "Ġlistening": 4255, "Ġgain": 4256, "Ġext": 4257, "Ġshampoo": 4258, "del": 4259, "Ġbreakfast": 4260, "Ġskirt": 4261, "Ġadvice": 4262, "Ġleaving": 4263, "Ġlumber": 4264, "ected": 4265, "Ġopera": 4266, "Ġtease": 4267, "Ġhate": 4268, "Ġinvite": 4269, "Ġpleased": 4270, "te": 4271, "Ġlip": 4272, "reek": 4273, "Ġpoint": 4274, "Ġsof": 4275, "ogn": 4276, "Ġblueberries": 4277, "Ġdisappear": 4278, "Ġreindeer": 4279, "Little": 4280, "Ġcreek": 4281, "Ġserve": 4282, "Ġrail": 4283, "ience": 4284, "Ġalarm": 4285, "Ġchance": 4286, "Ġgrape": 4287, "Ġanywhere": 4288, "Ġquiz": 4289, "Ġsweetie": 4290, "Ġbeef": 4291, "ium": 4292, "Ġweather": 4293, "Ġrecogn": 4294, "bbles": 4295, "Ġreverse": 4296, "Ġlawy": 4297, "Ġsofa": 4298, "Ġswamp": 4299, "Ġmodel": 4300, "Ġtrains": 4301, "Ġbelongs": 4302, "Ġleaned": 4303, "Ġobser": 4304, "Ġhive": 4305, "Ġstirred": 4306, "Ġriding": 4307, "ĠTeddy": 4308, "Ġunpack": 4309, "Ġmicroscope": 4310, "Ġpeeked": 4311, "Ġceiling": 4312, "gen": 4313, "stri": 4314, "Ġbutterflies": 4315, "Ġblouse": 4316, "ĠGrandpa": 4317, "Ġpanda": 4318, "Ġknob": 4319, "Ġpeek": 4320, "Ġseparate": 4321, "Ġvehicle": 4322, "ef": 4323, "ĠBoun": 4324, "Daisy": 4325, "Ġstom": 4326, "Ġslipp": 4327, "Ġtwir": 4328, "rmomet": 4329, "Ġbury": 4330, "xy": 4331, "Ġjewelry": 4332, "Ġaccidentally": 4333, "rmometer": 4334, "ison": 4335, "Ġweigh": 4336, "Mr": 4337, "stairs": 4338, "Ġsoil": 4339, "ĠV": 4340, "Mummy": 4341, "night": 4342, "Ġhappens": 4343, "Ġrubber": 4344, "Ġsubway": 4345, "Ġextra": 4346, "affe": 4347, "res": 4348, "render": 4349, "Ouch": 4350, "Ġfort": 4351, "Ġjail": 4352, "ĠDolly": 4353, "Ġcale": 4354, "Ġcalend": 4355, "Ġmusician": 4356, "inarian": 4357, "astic": 4358, "Ġwindows": 4359, "eterinarian": 4360, "Ġaccept": 4361, "iki": 4362, "Ġswung": 4363, "Ġveterinarian": 4364, "Ġtrade": 4365, "na": 4366, "Ġmeeting": 4367, "Ġlawyer": 4368, "Ġcudd": 4369, "Ġunite": 4370, "Ġsounded": 4371, "Ġcrib": 4372, "Ġrefused": 4373, "Ġostri": 4374, "Ġapron": 4375, "Ġcliff": 4376, "asp": 4377, "low": 4378, "Ġpastel": 4379, "Ġins": 4380, "Ġlic": 4381, "Ġlid": 4382, "Ġtuna": 4383, "Ġbet": 4384, "Ġnature": 4385, "adium": 4386, "ĠCl": 4387, "Ġcalendar": 4388, "Ġstadium": 4389, "Ġsent": 4390, "!\".": 4391, "Ġlawn": 4392, "ummer": 4393, "Ġcaring": 4394, "ĠRed": 4395, "ĠWhere": 4396, "angu": 4397, "ĠPandy": 4398, "Ġlangu": 4399, "Ġpuddles": 4400, "Ġproblems": 4401, "Ġpage": 4402, "Ġgiraffe": 4403, "Ġimagined": 4404, "Ġmonkeys": 4405, "Ġwinter": 4406, "Ġspoil": 4407, "Ġthermometer": 4408, "Ġbent": 4409, "Ġstable": 4410, "Ġgoal": 4411, "Ġfavour": 4412, "Ġsadly": 4413, "ĠMrs": 4414, "Ġsteam": 4415, "Ġadmire": 4416, "Ġsuggested": 4417, "Ġsuff": 4418, "Ġsqueeze": 4419, "Ġinf": 4420, "Ġreef": 4421, "ricane": 4422, "Ġlicense": 4423, "Ġprevent": 4424, "Did": 4425, "Ġfixing": 4426, "Ġmissing": 4427, "Ġfinds": 4428, "Ġwarned": 4429, "Ġwaste": 4430, "amber": 4431, "Ġabove": 4432, "ĠMar": 4433, "Ġstarts": 4434, "Ġchasing": 4435, "Ġsurprises": 4436, "Ġostrich": 4437, "ations": 4438, "ĠBuzzy": 4439, "Ġfavourite": 4440, "Ġsearching": 4441, "alley": 4442, "Ġdoors": 4443, "Ġshower": 4444, "Ġclassroom": 4445, "Ġvalley": 4446, "Ġcarrying": 4447, "cage": 4448, "Ġwigg": 4449, "Ġbirdcage": 4450, "Ġchamber": 4451, "Ġexcitedly": 4452, "Ġfloat": 4453, "ĠBinky": 4454, "iture": 4455, "elcome": 4456, "urniture": 4457, "Ġbrightly": 4458, "veal": 4459, "Ġblinked": 4460, "ĠY": 4461, "ĠOw": 4462, "Ġchairs": 4463, "Ġhuman": 4464, "thank": 4465, "Ġsummer": 4466, "Ġfurniture": 4467, "Ġart": 4468, "Ġhanded": 4469, "Ġsticker": 4470, "aspoon": 4471, "Ġpushing": 4472, "Ġignore": 4473, "Ġshouts": 4474, "Ġmistakes": 4475, "Ġchoice": 4476, "iform": 4477, "Ġuniform": 4478, "Ġpair": 4479, "Ġrushed": 4480, "Ġreveal": 4481, "Ġmass": 4482, "Ġargue": 4483, "Ġlions": 4484, "Ġfrowned": 4485, "Mary": 4486, "med": 4487, "ĠHel": 4488, "Ġforgave": 4489, "Ġaw": 4490, "Ġsneezed": 4491, "Ch": 4492, "Ġyield": 4493, "Ġsaving": 4494, "Ġraise": 4495, "peedy": 4496, "Ġincre": 4497, "aked": 4498, "Ġribbon": 4499, "Ġmall": 4500, "Ġplayer": 4501, "Ġremove": 4502, "Ġreplace": 4503, "Ġsurrender": 4504, "Ġdancer": 4505, "Ġcur": 4506, "Ġmeas": 4507, "rod": 4508, "Ġmustache": 4509, "Ġrespectful": 4510, "Ġyawn": 4511, "ĠAlice": 4512, "Ġintrod": 4513, "Ġzoomed": 4514, "Ġstrip": 4515, "mend": 4516, "Ġplastic": 4517, "Ġweap": 4518, "Ġteaspoon": 4519, "Ġclaw": 4520, "chan": 4521, "Your": 4522, "ola": 4523, "Ġsupply": 4524, "Ġpages": 4525, "Ġended": 4526, "Ġsniffed": 4527, "Ġsunset": 4528, "Ġpulls": 4529, "ĠOlive": 4530, "ommend": 4531, "Ġslip": 4532, "Ġadmired": 4533, "ecause": 4534, "Ġhurricane": 4535, "ĠBill": 4536, "Ġinfant": 4537, "Ġgro": 4538, "ĠCarl": 4539, "Ġrepeat": 4540, "eor": 4541, "ĠBig": 4542, "Ġshakes": 4543, "Ġplates": 4544, "Ġrecommend": 4545, "Ġslippery": 4546, "oof": 4547, "Ġspade": 4548, "Ġpoints": 4549, "Ġfought": 4550, "Ġolder": 4551, "Ġevening": 4552, "Ġdelay": 4553, "aul": 4554, "Ġdear": 4555, "Ġlanguage": 4556, "ĠâĢ": 4557, "Ġshovel": 4558, "Ġregret": 4559, "Ġprepare": 4560, "hero": 4561, "eorge": 4562, "Ġlives": 4563, "Ġpup": 4564, "Ġrac": 4565, "iday": 4566, "Ġsuperhero": 4567, "Ġwine": 4568, "ince": 4569, "Ġsocks": 4570, "chanic": 4571, "Ġpanic": 4572, "Ġmineral": 4573, "Ġputting": 4574, "ucture": 4575, "Ġsticky": 4576, "olog": 4577, "Ġstructure": 4578, "Ġhoping": 4579, "ĠBubbles": 4580, "Ġappl": 4581, "Yuck": 4582, "Ġbeg": 4583, "Ġshone": 4584, "ĠDave": 4585, "..": 4586, "icer": 4587, "Ġmechanic": 4588, "Ġmystery": 4589, "Ġapolog": 4590, "Ġdelighted": 4591, "Ġfre": 4592, "Ġleak": 4593, "Ġhol": 4594, "Ġrained": 4595, "Ġsteel": 4596, "uggage": 4597, "Ġharb": 4598, "Ġcared": 4599, "Ġproudly": 4600, "Ġluggage": 4601, "Ġshivering": 4602, "Ġport": 4603, "Ġholiday": 4604, "Next": 4605, "Ġevent": 4606, "Ġcolourful": 4607, "Ġkinds": 4608, "Yay": 4609, "Ġberry": 4610, "Ġsoftly": 4611, "Ġcountry": 4612, "Ġbarks": 4613, "ĠLee": 4614, "Grandma": 4615, "ĠWould": 4616, "ĠNext": 4617, "Ġgrabs": 4618, "Ġreminded": 4619, "Ġthanks": 4620, "Ġshoulder": 4621, "Will": 4622, "Ġcherry": 4623, "Qu": 4624, "Ġmeowed": 4625, "ement": 4626, "Ġdare": 4627, "ĠPat": 4628, "ĠBow": 4629, "Ġharbor": 4630, "Ġtip": 4631, "Ġbend": 4632, "apping": 4633, "ĠFreddy": 4634, "Ġimpressed": 4635, "imed": 4636, "Ġsudden": 4637, "Ġchickens": 4638, "cuss": 4639, "Ġbrighter": 4640, "Ġgiggle": 4641, "Ġclapping": 4642, "Ġunh": 4643, "ĠEnd": 4644, "Ġplanes": 4645, "Buddy": 4646, "Ġthumb": 4647, "Ġranch": 4648, "Ġrestore": 4649, "Ġhorses": 4650, "Ġweapon": 4651, "Ġdiscuss": 4652, "Ġcopper": 4653, "Ġbreat": 4654, "icky": 4655, "ĠJazz": 4656, "ĠSpeedy": 4657, "Ġprayed": 4658, "Ġexamine": 4659, "Ġmenu": 4660, "ari": 4661, "ĠZoomy": 4662, "sity": 4663, "ĠMike": 4664, "Ġsunr": 4665, "ason": 4666, "aud": 4667, "ĠUn": 4668, "Ġcourage": 4669, "Ġfresh": 4670, "Ġfeelings": 4671, "ĠKiki": 4672, "ĠRu": 4673, "lex": 4674, "Ġrush": 4675, "Ġpushes": 4676, "Ġequ": 4677, "ĠFl": 4678, "Ġenter": 4679, "Ġprovide": 4680, "Ġsigh": 4681, "ĠEllie": 4682, "Ġrow": 4683, "cer": 4684, "Ġstreng": 4685, "Ġsuffer": 4686, "oe": 4687, "wards": 4688, "cond": 4689, "ero": 4690, "Ġsprayed": 4691, "Ġtrusted": 4692, "Emma": 4693, "Ġx": 4694, "Ġbumped": 4695, "Ġmassage": 4696, "Ġsunrise": 4697, "Ġalive": 4698, "Ġunhappy": 4699, "Ġflies": 4700, "Ġnetwork": 4701, "Ġstrength": 4702, "igi": 4703, "Ġkeeping": 4704, "Ġsecond": 4705, "cast": 4706, "year": 4707, "Ġsomewhere": 4708, "Ġparts": 4709, "Ġsplashing": 4710, "Ġstarting": 4711, "Ġchirp": 4712, "acked": 4713, "Ġmatches": 4714, "Ġthrowing": 4715, "Ġletting": 4716, "Ġsmells": 4717, "ĠHelp": 4718, "Ġapplaud": 4719, "heart": 4720, "Ġsty": 4721, "Ġsandcast": 4722, "Ġcastles": 4723, "arlie": 4724, "Ġcrossed": 4725, "Ġyawned": 4726, "Ġgreedy": 4727, "bles": 4728, "Ġheat": 4729, "Ġener": 4730, "ĠOr": 4731, "men": 4732, "Ġskill": 4733, "Ġdrops": 4734, "Ġmention": 4735, "Ġexplored": 4736, "ĠTed": 4737, "Ġeaten": 4738, "Ġbreaks": 4739, "Ġshrugged": 4740, "Ġleather": 4741, "All": 4742, "Ġcontent": 4743, "riage": 4744, "Ġkneel": 4745, "Ġfreeze": 4746, "hter": 4747, "Ann": 4748, "ĠMandy": 4749, "Ġlaughter": 4750, "Ġpunish": 4751, "Ġchecked": 4752, "Alice": 4753, "Ġscore": 4754, "Mark": 4755, "Ġuniverse": 4756, "Ġstud": 4757, "Ġflood": 4758, "Ġraining": 4759, "Ġrooms": 4760, "Ġrabbits": 4761, "Ġclaws": 4762, "Ġexpect": 4763, "ipment": 4764, "Ġequipment": 4765, "ĠHoppy": 4766, "ĠSque": 4767, "Ġsqueezed": 4768, "Ġpoison": 4769, "Ġimagination": 4770, "Ġscold": 4771, "erc": 4772, "Ġhist": 4773, "Ġvac": 4774, "Ġjogged": 4775, "Ġsnugg": 4776, "Ġheads": 4777, "Ġsweetheart": 4778, "Ġpigs": 4779, "Daddy": 4780, "Ġtide": 4781, "Ġwre": 4782, "Ġdem": 4783, "Ġhistory": 4784, "eration": 4785, "Ready": 4786, "Ġsettle": 4787, "ĠSoph": 4788, "quest": 4789, "Ġbeans": 4790, "Ġmyself": 4791, "Ġminute": 4792, "Ġnavy": 4793, "ĠLilly": 4794, "Ġflapped": 4795, "Ġwriting": 4796, "Ġbouncing": 4797, "Ġthrows": 4798, "Ġnation": 4799, "Ġrequest": 4800, "Ġoffer": 4801, "Ġdishes": 4802, "Ġblowing": 4803, "mare": 4804, "Ġcalls": 4805, "Ġbuzz": 4806, "Ġprune": 4807, "Ġpur": 4808, "Ġtoe": 4809, "Ġbelieved": 4810, "Ġcandles": 4811, "Ġstomach": 4812, "Ġdemand": 4813, "otten": 4814, "Ġmarriage": 4815, "ially": 4816, "quake": 4817, "Ġcoats": 4818, "Ġcheek": 4819, "Ġexerc": 4820, "ges": 4821, "Ġbaking": 4822, "inking": 4823, "Ġpaid": 4824, "Ġpirates": 4825, "Ġsir": 4826, "Ġbadly": 4827, "Ġplaced": 4828, "Ġwarn": 4829, "Ġearthquake": 4830, "Ġsparkled": 4831, "isty": 4832, "Ġhearts": 4833, "ĠGigi": 4834, "Ġnightmare": 4835, "ĠBluey": 4836, "Ġignored": 4837, "Ġscratch": 4838, "Lisa": 4839, "Ġnews": 4840, "ĠElly": 4841, "Ġhopes": 4842, "spec": 4843, "Ġyucky": 4844, "Ġobserve": 4845, "mble": 4846, "Ġenergy": 4847, "Ġwreck": 4848, "specially": 4849, "Ġtracks": 4850, "Before": 4851, "ĠCoco": 4852, "Ġscoop": 4853, "Ġcrash": 4854, "Ġhills": 4855, "Ġshopkeeper": 4856, "Ġtremble": 4857, "Ġgiven": 4858, "ĠUnder": 4859, "Ġpedal": 4860, "ĠLucky": 4861, "Ġbears": 4862, "Ġsnowball": 4863, "Ġstrawberries": 4864, "ĠSnowy": 4865, "Ġsport": 4866, "Ġsandcastle": 4867, "Ġbeauty": 4868, "Mimi": 4869, "Ġeasily": 4870, "Ġespecially": 4871, "Ġbother": 4872, "Ġinvit": 4873, "Ġburned": 4874, "Ġing": 4875, "ifi": 4876, "ĠPenny": 4877, "ween": 4878, "Ġpermit": 4879, "Ġvacation": 4880, "Ġspots": 4881, "Ġbetween": 4882, "Welcome": 4883, "Ġcape": 4884, "Ġvroom": 4885, "Ġwhistled": 4886, "redient": 4887, "ĠFox": 4888, "Ġingredient": 4889, "ĠMummy": 4890, "Ġinsisted": 4891, "Ġsew": 4892, "yth": 4893, "Ġtug": 4894, "Ġpalm": 4895, "ĠSee": 4896, "anges": 4897, "Ġbouncy": 4898, "Ġplanned": 4899, "Ġexper": 4900, "ythm": 4901, "ĠSk": 4902, "Ġsoak": 4903, "Ġgrowled": 4904, "Ġluck": 4905, "Ġgaz": 4906, "Ġweight": 4907, "Ġoperation": 4908, "Sh": 4909, "Ġwaving": 4910, "Ġbrain": 4911, "ĠOwl": 4912, "ĠHave": 4913, "Ġfloated": 4914, "Ġfurt": 4915, "Ġtwisted": 4916, "ĠSharing": 4917, "Ġslap": 4918, "laimed": 4919, "Ġmailman": 4920, "Ġinclude": 4921, "Ġaftern": 4922, "Ġconf": 4923, "ĠAnnie": 4924, "Ġprunes": 4925, "house": 4926, "ĠSm": 4927, "Ġafternoon": 4928, "Ġtour": 4929, "Ġcomf": 4930, "emember": 4931, "Ġsafari": 4932, "Ġstrike": 4933, "ecting": 4934, "Ġmarbles": 4935, "Ġwhisper": 4936, "Ġfurther": 4937, "Jenny": 4938, "Ġentered": 4939, "Ġuniversity": 4940, "Ġingredients": 4941, "Ġexclaimed": 4942, "ĠZara": 4943, "ĠSqueaky": 4944, "Ġupstairs": 4945, "Ġapart": 4946, "ĠBee": 4947, "Ġrhythm": 4948, "Ġencourage": 4949, "Ġincrease": 4950, "reat": 4951, "Ġnobody": 4952, "reeze": 4953, "Ġmoves": 4954, "Ġzigzag": 4955, "Ġwags": 4956, "Ġstyle": 4957, "nesday": 4958, "ednesday": 4959, "unday": 4960, "Ġintroduce": 4961, "Fred": 4962, "Ġstruggle": 4963, "ĠSunday": 4964, "Ġwinning": 4965, "Ġchewed": 4966, "Ġdaisy": 4967, "bbing": 4968, "izes": 4969, "Ġfollowing": 4970, "ĠJohnny": 4971, "uesday": 4972, "Ġhon": 4973, "apa": 4974, "Ġpulling": 4975, "ĠGod": 4976, "Ġheel": 4977, "Ġbelow": 4978, "Ġscrat": 4979, "Ġdigg": 4980, "Ġpad": 4981, "Ġfollows": 4982, "resses": 4983, "With": 4984, "tain": 4985, "ĠLola": 4986, "Ġvel": 4987, "Ġsolved": 4988, "Ġdigging": 4989, "Woof": 4990, "ĠWhenever": 4991, "look": 4992, "Ġwashing": 4993, "arnt": 4994, "Ġlearnt": 4995, "ĠWednesday": 4996, "ĠGrace": 4997, "Ġracing": 4998, "Ġclosely": 4999, "Ġvelvet": 5000, "Ġteaching": 5001, "Ġfolded": 5002, "Ġtwisty": 5003, "Ġshouting": 5004, "hest": 5005, "Ġagre": 5006, "ffic": 5007, "Ġplanted": 5008, "illie": 5009, "ĠDog": 5010, "Ġwaffles": 5011, "ĠTuesday": 5012, "Ġstair": 5013, "Ġbackpack": 5014, "ĠJoey": 5015, "Ġrecognize": 5016, "Ġwisdom": 5017, "Everyone": 5018, "Ġlemons": 5019, "ĠWho": 5020, "Ġcreatures": 5021, "cery": 5022, "Ġgrocery": 5023, "Ġtraffic": 5024, "Ġlandscape": 5025, "xygen": 5026, "Ġpoppy": 5027, "ddy": 5028, "Ġunderground": 5029, "ĠPaul": 5030, "ĠIs": 5031, "ĠGood": 5032, "ĠFifi": 5033, "ories": 5034, "raged": 5035, "Ġworms": 5036, "Ġvanished": 5037, "ĠAlex": 5038, "Ġgifts": 5039, "hood": 5040, "ĠFinny": 5041, "Ġsimp": 5042, "Ġjazz": 5043, "Ġmama": 5044, "Ġdressed": 5045, "Ġwarning": 5046, "Ġolives": 5047, "Le": 5048, "Ġworth": 5049, "ittens": 5050, "Ġsnuggled": 5051, "Ġimage": 5052, "Ġquite": 5053, "Ġquietly": 5054, "Ġsailing": 5055, "Ġbricks": 5056, "Ġmanage": 5057, "ĠGeorge": 5058, "Ġtomatoes": 5059, "Ġble": 5060, "Bella": 5061, "Ġdried": 5062, "Ġattention": 5063, "right": 5064, "Ġburied": 5065, "Ġwagging": 5066, "Ġshined": 5067, "Because": 5068, "Ġweb": 5069, "ĠWally": 5070, "Ġhurting": 5071, "enry": 5072, "Ġsprink": 5073, "Ġpeanuts": 5074, "Ġblueberry": 5075, "Ġdresses": 5076, "ĠRo": 5077, "Ġprice": 5078, "ĠBounce": 5079, "Bl": 5080, "uct": 5081, "Ġideas": 5082, "looking": 5083, "Ġpaused": 5084, "Ġdeeper": 5085, "ipping": 5086, "ĠToto": 5087, "Ġexit": 5088, "ĠEverything": 5089, "Ġexercise": 5090, "These": 5091, "ops": 5092, "Ġcrow": 5093, "Not": 5094, "Remy": 5095, "Ġpitch": 5096, "Ġeagerly": 5097, "Ġlemonade": 5098, "Ġneighbour": 5099, "Ġrang": 5100, "Ġseats": 5101, "rec": 5102, "mm": 5103, "Ġblink": 5104, "Ġcollected": 5105, "Ġpuzzles": 5106, "isses": 5107, "Ġinst": 5108, "Ġlicks": 5109, "oral": 5110, "Ġkisses": 5111, "etch": 5112, "Ġblood": 5113, "Ġsits": 5114, "Ġwob": 5115, "Ġbalan": 5116, "Ġfireworks": 5117, "Ġoh": 5118, "Ġplays": 5119, "ecture": 5120, "Ġsorts": 5121, "Ġsnail": 5122, "Ġcatching": 5123, "ĠSpark": 5124, "Ġallow": 5125, "Ġmuddy": 5126, "Ġcounter": 5127, "Today": 5128, "ĠPinky": 5129, "Ġurge": 5130, "Ġlecture": 5131, "ucked": 5132, "Ġacorns": 5133, "sed": 5134, "Ġmemories": 5135, "Ġpillows": 5136, "Ġreaches": 5137, "Ġspike": 5138, "Ġdestroyed": 5139, "ĠâĢĵ": 5140, "Ġmice": 5141, "ĠSu": 5142, "ah": 5143, "Ġwandered": 5144, "Ġsi": 5145, "Ġseeing": 5146, "Ġblankets": 5147, "Ġcaptain": 5148, "gie": 5149, "Ġfallen": 5150, "Ġmarried": 5151, "ĠCharlie": 5152, "ĠDanny": 5153, "ores": 5154, "Ġnowhere": 5155, "Ġsizes": 5156, "ĠFinn": 5157, "ĠEventually": 5158, "Ġtreasures": 5159, "Ġskills": 5160, "Ġbur": 5161, "Ġsnapped": 5162, "Ġrelease": 5163, "Ġpinched": 5164, "Ġhadn": 5165, "ips": 5166, "Ġbreathe": 5167, "Ġtremb": 5168, "Ġcelebrated": 5169, "Ġgazed": 5170, "ived": 5171, "unately": 5172, "sters": 5173, "ester": 5174, "pted": 5175, "Ġbones": 5176, "Ġlung": 5177, "ĠHarry": 5178, "Ġoranges": 5179, "Ġjogging": 5180, "Ġcakes": 5181, "Ġsliding": 5182, "Ġduring": 5183, "ĠMittens": 5184, "Ġsigns": 5185, "Ġstamps": 5186, "Ġmemory": 5187, "esterday": 5188, "Ġencouraged": 5189, "Ġhers": 5190, "ĠLiz": 5191, "Ġflap": 5192, "Ġgolden": 5193, "ippy": 5194, "Ġworse": 5195, "Ġwatered": 5196, "Ġvisited": 5197, "Ġpetals": 5198, "reci": 5199, "orted": 5200, "Ġstitch": 5201, "Ġvanish": 5202, "Ġaccepted": 5203, "ury": 5204, "ĠSandy": 5205, "Ġshot": 5206, "Ġdisagree": 5207, "ĠSophie": 5208, "nce": 5209, "Ġchores": 5210, "Ġappreci": 5211, "ĠRos": 5212, "Ġunlocked": 5213, "Surpr": 5214, "ux": 5215, "Ġoxygen": 5216, "Ġhits": 5217, "Ġbaked": 5218, "Ġclimbs": 5219, "ĠQu": 5220, "Ġbrings": 5221, "Ġruin": 5222, "Ġpunished": 5223, "Ġtoes": 5224, "ising": 5225, "Ġprints": 5226, "Ġwinner": 5227, "elvet": 5228, "Ġbeds": 5229, "Ġforgotten": 5230, "Ġpaints": 5231, "Ġwelcomed": 5232, "Ġreceive": 5233, "ssible": 5234, "Ġprett": 5235, "Ġscolded": 5236, "va": 5237, "umble": 5238, "Ġbowed": 5239, "Ġsince": 5240, "Ġpies": 5241, "ĠPapa": 5242, "Ġtwirled": 5243, "Ġbites": 5244, "ĠFroggy": 5245, "Ġglo": 5246, "Ġurged": 5247, "ccer": 5248, "choo": 5249, "Ġraised": 5250, "Ġeasier": 5251, "Jen": 5252, "Ġfro": 5253, "Ġzipped": 5254, "Ġelephants": 5255, "Ġstuffed": 5256, "Ġinvitation": 5257, "ring": 5258, "aggie": 5259, "ĠBaby": 5260, "do": 5261, "Ġbleed": 5262, "Ġpupil": 5263, "Ġsoccer": 5264, "ups": 5265, "Ġdifference": 5266, "Ġcreated": 5267, "Ġresp": 5268, "Ġpets": 5269, "rin": 5270, "ĠBoo": 5271, "Ġbye": 5272, "Ġguessed": 5273, "sit": 5274, "Ġkitty": 5275, "Ġshouldn": 5276, "Ġprinter": 5277, "Ġspoons": 5278, "Ġfash": 5279, "ictory": 5280, "Yum": 5281, "Ġunderstanding": 5282, "Ġjewels": 5283, "Ġscattered": 5284, "Ġattached": 5285, "Ġstraight": 5286, "Ġcollection": 5287, "ĠTilly": 5288, "ĠTuna": 5289, "Ġpotatoes": 5290, "Ġexperience": 5291, "Ġacted": 5292, "Moral": 5293, "Ġmarching": 5294, "Ġpresents": 5295, "Ġlux": 5296, "Ġbreaking": 5297, "Ġsimple": 5298, "Ġfashion": 5299, "rr": 5300, "Ġtong": 5301, "Ġpears": 5302, "ction": 5303, "Ġappear": 5304, "Ġgloves": 5305, "'ve": 5306, "Bobby": 5307, "Ġkingdom": 5308, "Ġisn": 5309, "Ġseason": 5310, "avid": 5311, "iers": 5312, "kins": 5313, "ents": 5314, "Ġbrus": 5315, "Ġtwink": 5316, "Ġgrin": 5317, "Surprise": 5318, "ĠRuby": 5319, "Ġmeow": 5320, "fortunately": 5321, "cus": 5322, "ĠRock": 5323, "Ġours": 5324, "Ġsorting": 5325, "icing": 5326, "aped": 5327, "Ġtore": 5328, "Ġweeping": 5329, "ĠVelvet": 5330, "Goodbye": 5331, "Ġdisagreed": 5332, "chie": 5333, "akes": 5334, "ĠEach": 5335, "ĠBefore": 5336, "Ġfamil": 5337, "Ġkicking": 5338, "Ġreceived": 5339, "anny": 5340, "Ġcras": 5341, "Ġfloating": 5342, "Ġcutting": 5343, "Ġmuffins": 5344, "Ok": 5345, "Ġprinted": 5346, "Meow": 5347, "eath": 5348, "Ġtrapped": 5349, "ding": 5350, "Ġlined": 5351, "Ġskipping": 5352, "Ġsurround": 5353, "Ġteasing": 5354, "Ġvoices": 5355, "Ġwhistling": 5356, "omeday": 5357, "ĠSmith": 5358, "Ġdrinks": 5359, "Ġsoldiers": 5360, "Ġbang": 5361, "une": 5362, "Ġcartoons": 5363, "ĠMaria": 5364, "ishing": 5365, "Ġvictory": 5366, "Ġmuscles": 5367, "Ġringing": 5368, "Ġmeasured": 5369, "Ġluxury": 5370, "Ġdared": 5371, "Ġsip": 5372, "Ġnone": 5373, "ĠKing": 5374, "Ġfields": 5375, "Ġhurried": 5376, "ishes": 5377, "Ġgirls": 5378, "Ġmelted": 5379, "ĠLizzy": 5380, "Ġsomeday": 5381, "Ġwest": 5382, "Ġeast": 5383, "Ġspit": 5384, "medi": 5385, "Ġmentioned": 5386, "mediately": 5387, "Ġtonight": 5388, "aded": 5389, "ĠIts": 5390, "Ġslice": 5391, "ĠPip": 5392, "Ġfiref": 5393, "Ġselling": 5394, "walk": 5395, "Ġcolours": 5396, "Blue": 5397, "Ġfishing": 5398, "boo": 5399, "Ġknown": 5400, "umes": 5401, "Ġflat": 5402, "Ġwatches": 5403, "ĠSlow": 5404, "Ġpatterns": 5405, "ĠHope": 5406, "Ġalright": 5407, "Ġheaded": 5408, "Ġsidewalk": 5409, "Ġrelaxed": 5410, "ĠRosie": 5411, "vest": 5412, "Ġdrinking": 5413, "Mandy": 5414, "ĠMay": 5415, "Ġtrave": 5416, "Ġzero": 5417, "Ġemer": 5418, "!'": 5419, "Ġbreeze": 5420, "ety": 5421, "Ġshed": 5422, "Ġpeaches": 5423, "ĠAm": 5424, "Ġremained": 5425, "Ġtongue": 5426, "ship": 5427, "Ġmouths": 5428, "Ġcostumes": 5429, "Ġlips": 5430, "Ġbegged": 5431, "ĠBoth": 5432, "Ġsorted": 5433, "Ġshadows": 5434, "Ġwaist": 5435, "Ġcontest": 5436, "ĠKate": 5437, "Ġladyb": 5438, "Ġworks": 5439, "Cat": 5440, "ĠTony": 5441, "Ġbrid": 5442, "Ġfed": 5443, "utter": 5444, "Ġappro": 5445, "Ġpra": 5446, "Ġofficer": 5447, "osed": 5448, "eep": 5449, "aker": 5450, "Ġlets": 5451, "Ġmixing": 5452, "Ġdecorations": 5453, "ĠThese": 5454, "anna": 5455, "ĠMillie": 5456, "Happy": 5457, "Ġcub": 5458, "Ġscreams": 5459, "Ġsetting": 5460, "Really": 5461, "Ġhighest": 5462, "Ġrested": 5463, "Ġinstr": 5464, "Ġbridges": 5465, "Ġslapped": 5466, "Ġnails": 5467, "Ġroots": 5468, "Ġwiggle": 5469, "ĠSomeone": 5470, "Ġsettled": 5471, "ther": 5472, "Ġshock": 5473, "Ġgrant": 5474, "iggly": 5475, "Ġsneak": 5476, "Ġsix": 5477, "ission": 5478, "ĠFollow": 5479, "Ġyouth": 5480, "Ġmoments": 5481, "abies": 5482, "Ġstrang": 5483, "ĠSte": 5484, "oved": 5485, "Ġfetch": 5486, "Momo": 5487, "Ġperfectly": 5488, "Ġpermission": 5489, "Ġlaid": 5490, "Ġstro": 5491, "Ġago": 5492, "ored": 5493, "Ġesc": 5494, "Ġripped": 5495, "Ġtwigs": 5496, "Ġlines": 5497, "Ġplaytime": 5498, "ĠLater": 5499, "Ġresting": 5500, "Ġcrunch": 5501, "Ġsafety": 5502, "Ġordered": 5503, "Ġrevealed": 5504, "Ġamazement": 5505, "ĠClara": 5506, "Ġopin": 5507, "Ġcones": 5508, "Ġscratched": 5509, "Ġbabies": 5510, "Ġinvest": 5511, "ĠJames": 5512, "ded": 5513, "Ġwrit": 5514, "Ġwaits": 5515, "Ġsucceeded": 5516, "zing": 5517, "Ġtext": 5518, "Ġstrangers": 5519, "Ġinvestig": 5520, "Ġlick": 5521, "Ġladybug": 5522, "Bu": 5523, "ids": 5524, "Ha": 5525, "Ġimmediately": 5526, "Ġstealing": 5527, "ĠZigzag": 5528, "Ġherbs": 5529, "Ġmeasuring": 5530, "Ġtexture": 5531, "\",": 5532, "Ġinch": 5533, "Ġtucked": 5534, "ĠJul": 5535, "plash": 5536, "Ġfiremen": 5537, "Ġsupposed": 5538, "Ġleader": 5539, "ĠFrog": 5540, "Ġbringing": 5541, "Ġadmir": 5542, "Leo": 5543, "Boo": 5544, "ides": 5545, "Ġlands": 5546, "Ġmelting": 5547, "Ġachie": 5548, "Ġresult": 5549, "Ġserved": 5550, "Andy": 5551, "Ġtheirs": 5552, "ĠSuzy": 5553, "Ġbrushes": 5554, "Ġinvestigate": 5555, "sing": 5556, "ĠMo": 5557, "Ġbroom": 5558, "Ġimportance": 5559, "ĠChicky": 5560, "ĠBouncy": 5561, "Ġstudied": 5562, "Ġtrembling": 5563, "Bird": 5564, "Would": 5565, "ĠBo": 5566, "Ġpearl": 5567, "please": 5568, "Ġwiz": 5569, "Ġhesit": 5570, "osity": 5571, "bers": 5572, "Ġguy": 5573, "Ġcrawling": 5574, "Ġthrill": 5575, "ĠBug": 5576, "Ġvet": 5577, "ĠUncle": 5578, "Ġkneeled": 5579, "Ġitem": 5580, "Ella": 5581, "Ġarea": 5582, "Ġwooden": 5583, "Ġmatched": 5584, "Ġkeeps": 5585, "Ġchewing": 5586, "Ġdinosaurs": 5587, "Ġmonsters": 5588, "irring": 5589, "Ġbravely": 5590, "Ġtickets": 5591, "allen": 5592, "Ġsore": 5593, "isten": 5594, "Ġpiles": 5595, "Ġquack": 5596, "mother": 5597, "Ġnapping": 5598, "Ġbeamed": 5599, "Ġchallen": 5600, "ĠNot": 5601, "Ġshooting": 5602, "Mmm": 5603, "aved": 5604, "Ġdire": 5605, "ĠHenry": 5606, "Ġkeys": 5607, "Ġmarks": 5608, "ino": 5609, "Ġdads": 5610, "Ġturning": 5611, "ĠDavid": 5612, "antly": 5613, "izing": 5614, "Ġburning": 5615, "hello": 5616, "Ġwink": 5617, "Ġsilence": 5618, "Ġwizard": 5619, "Ġstrings": 5620, "Ġpeel": 5621, "Ġshopping": 5622, "Ġmotion": 5623, "Ġhated": 5624, "Ġhen": 5625, "Ġfrost": 5626, "Ġtickle": 5627, "Ġscooped": 5628, "Ġpraised": 5629, "Ġsings": 5630, "Ġrul": 5631, "ĠWiggly": 5632, "Ġstirring": 5633, "ĠAn": 5634, "Ġsisters": 5635, "Ġanswers": 5636, "Ġspaceship": 5637, "gency": 5638, "Ġeats": 5639, "isdom": 5640, "Ġgust": 5641, "ĠMilly": 5642, "ĠHappy": 5643, "Ġwonders": 5644, "Tr": 5645, "irts": 5646, "ĠHo": 5647, "Ġfoods": 5648, "Ġwarmth": 5649, "ĠOut": 5650, "Ġfamilies": 5651, "Ġflav": 5652, "Ġtrips": 5653, "Peter": 5654, "Ġsoaked": 5655, "Ġpedals": 5656, "Ġcuddled": 5657, "Ġescaped": 5658, "'.": 5659, "Ġtwin": 5660, "embers": 5661, "Ġremembers": 5662, "Ġglowed": 5663, "ĠPippa": 5664, "Ġmister": 5665, "ĠFirst": 5666, "Ġdraws": 5667, "Ġsecrets": 5668, "Ġdisturbed": 5669, "Ġdot": 5670, "Ġthreat": 5671, "Ġknelt": 5672, "ĠRocky": 5673, "Un": 5674, "nie": 5675, "Ġsoared": 5676, "!\",": 5677, "ls": 5678, "loe": 5679, "ĠSomething": 5680, "ĠSqu": 5681, "Ġtouching": 5682, "Ġrecognized": 5683, "ĠRabbit": 5684, "Ġpupp": 5685, "Ġrides": 5686, "Ġsiren": 5687, "ĠSlowly": 5688, "Cl": 5689, "kelly": 5690, "ogo": 5691, "Ġapproached": 5692, "omas": 5693, "amie": 5694, "unnies": 5695, "Ġbleeding": 5696, "Ġcrunchy": 5697, "Ġfrosting": 5698, "Ġwanting": 5699, "ĠDr": 5700, "Ġcurled": 5701, "Ġappreciate": 5702, "Tw": 5703, "Ġcollecting": 5704, "ĠRobby": 5705, "Somet": 5706, "ales": 5707, "ĠBree": 5708, "ĠGr": 5709, "Ġroads": 5710, "Ġbuzzing": 5711, "Eventually": 5712, "Ġpoking": 5713, "Ġwrites": 5714, "Jake": 5715, "ena": 5716, "Ġradishes": 5717, "fied": 5718, "hind": 5719, "Ġboo": 5720, "Ġbunnies": 5721, "Ġchef": 5722, "Sammy": 5723, "Ġstudying": 5724, "ĠFrank": 5725, "Ġchirped": 5726, "ĠSky": 5727, "ues": 5728, "Ġpride": 5729, "Ġtastes": 5730, "ĠPepper": 5731, "Ġsneaky": 5732, "Ġgrey": 5733, "Ġsparkle": 5734, "Ġacting": 5735, "Ġneighborhood": 5736, "Ġbeat": 5737, "Ġnoon": 5738, "Ġdecides": 5739, "Ġowned": 5740, "ĠStitch": 5741, "Emily": 5742, "Ġemergency": 5743, "Ġcomple": 5744, "Remember": 5745, "rs": 5746, "Ġawe": 5747, "iggy": 5748, "Ġzooming": 5749, "Ġhorns": 5750, "Ġnicer": 5751, "ĠHop": 5752, "Ġscaring": 5753, "oys": 5754, "Ġagreement": 5755, "Ġsprinkles": 5756, "Ġthrilled": 5757, "act": 5758, "Ġfut": 5759, "ĠStar": 5760, "Ġheroes": 5761, "Ġgrinned": 5762, "Ġfuture": 5763, ".'": 5764, "Ġhi": 5765, "ĠMe": 5766, "ĠAb": 5767, "ĠChe": 5768, "Ġtricked": 5769, "Ġphot": 5770, "Ġsparkling": 5771, "ĠStop": 5772, "Ġsides": 5773, "Ġbehaved": 5774, "Ġrecorded": 5775, "Ġweighed": 5776, "Ġanytime": 5777, "Ġbloomed": 5778, "Ġspending": 5779, "Ollie": 5780, "Ġloose": 5781, "Ġloving": 5782, "ĠAunt": 5783, "urry": 5784, "ĠGreen": 5785, "Ġnaps": 5786, "Ġstripes": 5787, "Ġgrandmother": 5788, "ira": 5789, "Ġobe": 5790, "usty": 5791, "Ġpolished": 5792, "ĠSkelly": 5793, "ided": 5794, "Ġdoggy": 5795, "Ġdownstairs": 5796, "Ġpots": 5797, "Ġprec": 5798, "Ġstruggled": 5799, "ĠLike": 5800, "Ġgoodnight": 5801, "Ġruler": 5802, "Ġslim": 5803, "Ġworker": 5804, "Ġtoss": 5805, "Ġpause": 5806, "allow": 5807, "ĠBeep": 5808, "Ġwhatever": 5809, "Ġpossible": 5810, "Ġkindly": 5811, "Ġswims": 5812, "Ġprepared": 5813, "Ġhonk": 5814, "Ġsurrounded": 5815, "Or": 5816, "Ġdecorated": 5817, "Ġcrashed": 5818, "Have": 5819, "Ġtugged": 5820, "Ġhappiest": 5821, "riends": 5822, "ĠAlways": 5823, "Ġpebbles": 5824, "Ġsighs": 5825, "Ġbalancing": 5826, "lier": 5827, "oming": 5828, "Ġbelly": 5829, "ĠWisdom": 5830, "Ġrocking": 5831, "ĠBirdie": 5832, "Ġapologize": 5833, "Yummy": 5834, "ana": 5835, "Ġbeside": 5836, "ica": 5837, "Ġstaying": 5838, "Ġopinion": 5839, "Ġobey": 5840, "ĠOnce": 5841, "Ġrele": 5842, "ĠBlink": 5843, "Ġmittens": 5844, "Ġslimy": 5845, "Susie": 5846, "ĠGogo": 5847, "Ġplanets": 5848, "Ġrepeated": 5849, "Ġcomfy": 5850, "ĠMat": 5851, "Ġyelling": 5852, "Ġbuildings": 5853, "Ġprotected": 5854, "Ġphotos": 5855, "ĠDid": 5856, "Ġstruck": 5857, "joyed": 5858, "Ġrubbing": 5859, "Ġcircus": 5860, "Ġlimes": 5861, "Ġplayroom": 5862, "Ġshirts": 5863, "Ġoverjoyed": 5864, "Ġribbons": 5865, "Ġadmiring": 5866, "Ġloaded": 5867, "Ġcomforted": 5868, "Ex": 5869, "Ġeff": 5870, "Ġexpected": 5871, "ĠCar": 5872, "Ġfolding": 5873, "Ġclaps": 5874, "Ġsneaked": 5875, "Sp": 5876, "Ġsting": 5877, "Ġsausages": 5878, "Sometimes": 5879, "Ġcatches": 5880, "Ġourselves": 5881, "Ġairpl": 5882, "Ġteaches": 5883, "Ġmachines": 5884, "Ġprecious": 5885, "ib": 5886, "ays": 5887, "Ġyesterday": 5888, "ĠMaggie": 5889, "ĠDino": 5890, "Ġspraying": 5891, "oh": 5892, "ĠSplash": 5893, "Ġwoof": 5894, "Ġsteep": 5895, "Ġearlier": 5896, "Ġstruggling": 5897, "Ġprop": 5898, "Ġcuriosity": 5899, "Ġrespons": 5900, "Ah": 5901, "ud": 5902, "wh": 5903, "Ġcontinue": 5904, "Ġparties": 5905, "Ġhissed": 5906, "ĠAva": 5907, "Ġneighbors": 5908, "Ġsnowballs": 5909, "First": 5910, "ĠJess": 5911, "Ġtallest": 5912, "achel": 5913, "Ġapologized": 5914, "Ġeight": 5915, "Ġhugging": 5916, "Ġhardly": 5917, "Ġopening": 5918, "Ġdragons": 5919, "Ġspiders": 5920, "Ġgained": 5921, "Ġcontain": 5922, "Ġpoems": 5923, "Ġpurred": 5924, "use": 5925, "Ġactions": 5926, "zen": 5927, "Ġlily": 5928, "Ġlied": 5929, "ĠWater": 5930, "Ġsweeties": 5931, "Ro": 5932, "ppers": 5933, "Ġstare": 5934, "Ġfasc": 5935, "Ġsmiley": 5936, "Ġbottles": 5937, "ĠZoe": 5938, "enty": 5939, "Ġgiraff": 5940, "ĠJe": 5941, "Ġkeeper": 5942, "ĠRay": 5943, "Ġsplashes": 5944, "Ġchases": 5945, "Ġdiscovery": 5946, "Ġgiraffes": 5947, "Ġgaze": 5948, "Ġbead": 5949, "Ġbrushed": 5950, "Whiskers": 5951, "Ġseesaw": 5952, "Ġpaintings": 5953, "ĠSteve": 5954, "dam": 5955, "ĠAbby": 5956, "ĠRemember": 5957, "Ġeffort": 5958, "Ġcompany": 5959, "ha": 5960, "Ġwid": 5961, "Ġpockets": 5962, "Ġrefres": 5963, "Ġcompleted": 5964, "Ġcuts": 5965, "Ġdrives": 5966, "Ġpouring": 5967, "Ġzookeeper": 5968, "Ġpenguins": 5969, "Ġreleased": 5970, "During": 5971, "Ġwherever": 5972, "Achoo": 5973, "Ducky": 5974, "Ġargu": 5975, "Ġpolishing": 5976, "Ġfrozen": 5977, "igail": 5978, "Ġclearing": 5979, "Ġarguing": 5980, "Rob": 5981, "uke": 5982, "Ġlearns": 5983, "Ġglitter": 5984, "Ġcrumb": 5985, "Ġsparkles": 5986, "Ġknights": 5987, "Ġargued": 5988, "Ġcuddle": 5989, "Ġapplauded": 5990, "ler": 5991, "Ġboom": 5992, "Ġrocked": 5993, "Ġsafer": 5994, "Ġpastels": 5995, "indy": 5996, "Ġflutter": 5997, "Ġtails": 5998, "Ġseems": 5999, "...": 6000, "zes": 6001, "ĠX": 6002, "Ġroaring": 6003, "Ġteased": 6004, "Thanks": 6005, "Ġreply": 6006, "Ġfascin": 6007, "Ġtim": 6008, "Ġcaut": 6009, "Ġmane": 6010, "Ġpencils": 6011, "Ġhelmets": 6012, "Ġrings": 6013, "Ġsoaring": 6014, "Ġann": 6015, "Ġpeas": 6016, "Ġpretends": 6017, "Ġcrabs": 6018, "Ġshivered": 6019, "Ġsmallest": 6020, "Ġdeser": 6021, "ities": 6022, "Ġbeard": 6023, "ĠSpring": 6024, "Ġwiggled": 6025, "Ġremoved": 6026, "ĠLeave": 6027, "aws": 6028, "Ġchallenge": 6029, "Ġproper": 6030, "Ġvisiting": 6031, "Ġbank": 6032, "Ġforgi": 6033, "Ġorganizing": 6034, "ten": 6035, "atie": 6036, "Ġpeered": 6037, "Ġbuckets": 6038, "Ġgathering": 6039, "Ġmatching": 6040, "Ġdemanded": 6041, "Ġpadd": 6042, "Rex": 6043, "ĠPut": 6044, "âĢĿ.": 6045, "Ġflags": 6046, "Ġcough": 6047, "Ġlap": 6048, "Ġwondering": 6049, "Ġpetted": 6050, "Ġdiving": 6051, "Uh": 6052, "ibb": 6053, "Ġtalent": 6054, "ĠKeep": 6055, "ien": 6056, "Ġdipped": 6057, "uckily": 6058, "Ġsunlight": 6059, "Ġsitu": 6060, "Ġlogs": 6061, "Ġscru": 6062, "Ġawake": 6063, "Ġsticking": 6064, "Ġdarker": 6065, "Ġrolls": 6066, "Ġpatience": 6067, "ĠBeing": 6068, "ĠHoot": 6069, "ais": 6070, "Ġwins": 6071, "ords": 6072, "Ġuses": 6073, "Ġcracked": 6074, "Ġpowers": 6075, "Poppy": 6076, "Silly": 6077, "Ġthird": 6078, "ĠLove": 6079, "Ġgotten": 6080, "Ġdragged": 6081, "Ġsadness": 6082, "ĠJan": 6083, "Ġpeppers": 6084, "Ġactually": 6085, "Ġmovies": 6086, "Ġproject": 6087, "Ġbegin": 6088, "Ġgoals": 6089, "Ġeagle": 6090, "Ġmisses": 6091, "Ġfears": 6092, "Ġunited": 6093, "Ġrealize": 6094, "Ġprotecting": 6095, "Ġguns": 6096, "Ġgems": 6097, "jam": 6098, "edding": 6099, "Ġma": 6100, "anted": 6101, "Ġarrive": 6102, "annah": 6103, "umm": 6104, "Ġstretching": 6105, "Ġtasks": 6106, "Ġdied": 6107, "Ġoutdo": 6108, "ĠBrownie": 6109, "Ġweeks": 6110, "Ġbedtime": 6111, "Ġrip": 6112, "Ġagrees": 6113, "Ġbeads": 6114, "Fr": 6115, "Luna": 6116, "ĠLou": 6117, "ĠWatch": 6118, "ĠJu": 6119, "Ġdolphins": 6120, "Ġtraveled": 6121, "hee": 6122, "usan": 6123, "Ġperched": 6124, "Ġrubs": 6125, "Ġprettiest": 6126, "Ġitems": 6127, "Ġbunch": 6128, "Ġonwards": 6129, "Ġparked": 6130, "Ġbowls": 6131, "ĠQuick": 6132, "Ġweren": 6133, "uest": 6134, "ĠFish": 6135, "Ġpracticing": 6136, "ĠSkip": 6137, "ĠSquirrel": 6138, "Ġaccom": 6139, "Stay": 6140, "Ġcurtains": 6141, "ĠBecause": 6142, "ashed": 6143, "Ġminerals": 6144, "Ġairplane": 6145, "sses": 6146, "Ġwound": 6147, "Ġwedding": 6148, "Ġkites": 6149, "Ġvillag": 6150, "lowers": 6151, "Ġcurly": 6152, "Watch": 6153, "Ġstaring": 6154, "ĠPrin": 6155, "Ġsteady": 6156, "Johnny": 6157, "ĠZero": 6158, "Ġquarreling": 6159, "Ġdusty": 6160, "Ġchirping": 6161, "Dave": 6162, "ining": 6163, "Ġshrug": 6164, "George": 6165, "Ġwasted": 6166, "Ġhomework": 6167, "Ġsatis": 6168, "ĠBehind": 6169, "Ġmountains": 6170, "Grandpa": 6171, "Doggy": 6172, "Ġwhose": 6173, "ĠThomas": 6174, "Ġwrist": 6175, "Ġscreaming": 6176, "Ġprayer": 6177, "Ġaccompl": 6178, "Tina": 6179, "Ġdam": 6180, "Ġexamined": 6181, "Ġachieve": 6182, "Bunny": 6183, "Tiny": 6184, "ĠĠĊ": 6185, "Ġguest": 6186, "seek": 6187, "ĠJoy": 6188, "ĠChloe": 6189, "Ġhelpers": 6190, "icorn": 6191, "Ġcans": 6192, "ĠDare": 6193, "Ġgranted": 6194, "Ġreplaced": 6195, "Ġcandies": 6196, "Ġsweat": 6197, "Ġprettier": 6198, "Ġinstruct": 6199, "ĠJulie": 6200, "Bad": 6201, "Ġdent": 6202, "ĠJamie": 6203, "ĠOur": 6204, "Ġpans": 6205, "Ġvillagers": 6206, "ĠMoo": 6207, "Ġunicorn": 6208, "inkle": 6209, "ĠRachel": 6210, "Ġfairies": 6211, "arth": 6212, "ido": 6213, "irm": 6214, "Ġseas": 6215, "Ġroses": 6216, "Ġsled": 6217, "ĠEveryday": 6218, "Ġpastries": 6219, "Ġoutdoors": 6220, "Fo": 6221, "ern": 6222, "esome": 6223, "agull": 6224, "Ġchips": 6225, "Ġjoking": 6226, "Ġcontro": 6227, "Ġfirefight": 6228, "jamas": 6229, "die": 6230, "ley": 6231, "Ġdecision": 6232, "Ġlistens": 6233, "Ġresponsible": 6234, "James": 6235, "Time": 6236, "ĠRolly": 6237, "Ġpatted": 6238, "Ġawesome": 6239, "Ġrequested": 6240, "njoy": 6241, "ĠFriends": 6242, "Ġsnakes": 6243, "Ġpanc": 6244, "Ġpacking": 6245, "Ġsneezing": 6246, "Ġreminder": 6247, "Ġrefuse": 6248, "Ġornaments": 6249, "ĠOlly": 6250, "Ġcrept": 6251, "Ġrainbows": 6252, "Ġdesert": 6253, "Ġcomplained": 6254, "Ġconfl": 6255, "Ġfault": 6256, "Ġslam": 6257, "ĠCra": 6258, "Ġcopy": 6259, "Ġvideos": 6260, "bl": 6261, "Ġfara": 6262, "ĠBark": 6263, "Benny": 6264, "avi": 6265, "Ġcreation": 6266, "ooped": 6267, "Ġpumpkins": 6268, "Ġscrubbed": 6269, "Ġfaraway": 6270, "lay": 6271, "neath": 6272, "Ġspong": 6273, "Ġpajamas": 6274, "ĠJosh": 6275, "Ġmes": 6276, "Ġcautious": 6277, "Ġconflict": 6278, "nies": 6279, "ayla": 6280, "Ġstumble": 6281, "Ġpointy": 6282, "Ġsights": 6283, "Ġfascinated": 6284, "bie": 6285, "Ġbare": 6286, "ĠSure": 6287, "ĠWelcome": 6288, "aster": 6289, "Ġusual": 6290, "Ġinstructions": 6291, "uly": 6292, "Ġcause": 6293, "Ġexact": 6294, "Ġreaching": 6295, "aa": 6296, "ĠSorry": 6297, "Ġneither": 6298, "inda": 6299, "Ġseagull": 6300, "Ġusually": 6301, "Ġpromises": 6302, "Ġpassing": 6303, "Ġinviting": 6304, "Ġforks": 6305, "Grace": 6306, "gers": 6307, "ĠBy": 6308, "ĠBye": 6309, "Ġactiv": 6310, "Ġcomplaining": 6311, "Hold": 6312, "Ġtruly": 6313, "Ġstole": 6314, "Ġcloses": 6315, "Ġrescued": 6316, "Ġintroduc": 6317, "Ġsponge": 6318, "fl": 6319, "ĠSad": 6320, "Ġbecoming": 6321, "Ġnapkins": 6322, "ĠHowever": 6323, "Ġwobbled": 6324, "True": 6325, "Paul": 6326, "Ġcent": 6327, "Ġeveryday": 6328, "Ġpennies": 6329, "Ġtowels": 6330, "Ġpoliceman": 6331, "Ġmasks": 6332, "Ġconfident": 6333, "Ew": 6334, "Some": 6335, "ners": 6336, "anes": 6337, "Ġhops": 6338, "Ġbeneath": 6339, "Ġsolut": 6340, "Ġdestination": 6341, "Ġtwirl": 6342, "Ġbalanced": 6343, "Ġguys": 6344, "Ġcrumbs": 6345, "Miss": 6346, "Ġdar": 6347, "Ġfilling": 6348, "Toby": 6349, "Ġbrand": 6350, "Ġ1": 6351, "Ġtune": 6352, "Ġpout": 6353, "Ġreads": 6354, "Ġsupplies": 6355, "Ġlollipops": 6356, "Ġtimer": 6357, "Pete": 6358, "Ġfirm": 6359, "Ġvent": 6360, "Ġincluded": 6361, "ĠQuack": 6362, "dies": 6363, "Ġstern": 6364, "Ġyourselves": 6365, "Ġstartled": 6366, "Ġpatiently": 6367, "Ġgiggling": 6368, "Ġteamwork": 6369, "Ġadding": 6370, "Ġloading": 6371, "ĠRover": 6372, "ĠZiggy": 6373, "Ġcheering": 6374, "Ġhealed": 6375, "Annie": 6376, "Ġneighbourhood": 6377, "Ġcontrol": 6378, "eah": 6379, "you": 6380, "Ġhitting": 6381, "Ġshelves": 6382, "Ġglasses": 6383, "Ġrule": 6384, "Ġtables": 6385, "Ġsnowmen": 6386, "uctantly": 6387, "Ġsituation": 6388, "ĠCudd": 6389, "Ġfarther": 6390, "Ġvehicles": 6391, "Ġobserved": 6392, "Ġinsist": 6393, "ĠAbigail": 6394, "Dog": 6395, "Lola": 6396, "Ġheav": 6397, "ĠSun": 6398, "ilo": 6399, "ĠAlly": 6400, "Soph": 6401, "Ġbaker": 6402, "ĠSw": 6403, "ĠBeth": 6404, "Ġchuck": 6405, "Ġtraded": 6406, "Ġblows": 6407, "Ġwires": 6408, "Ġruining": 6409, "Mar": 6410, "arter": 6411, "ĠWant": 6412, "Ġvowed": 6413, "Ġunderneath": 6414, "Ġcomm": 6415, "ĠGet": 6416, "Ġmission": 6417, "Ġdelivered": 6418, "Ġexactly": 6419, "ĠQ": 6420, "ĠFido": 6421, "ĠDizzy": 6422, "Ġwindy": 6423, "Ġquacked": 6424, "ĠChr": 6425, "Ġbatteries": 6426, "Ġgrowling": 6427, "Fine": 6428, "Ġsmarter": 6429, "ueen": 6430, "Ġswooped": 6431, "ĠPaws": 6432, "Ġremote": 6433, "Ġwinked": 6434, "ĠCatty": 6435, "Ġknocks": 6436, "Ġpaddle": 6437, "Ġdots": 6438, "aisies": 6439, "ora": 6440, "Ġthorn": 6441, "ĠAnt": 6442, "Ġfaced": 6443, "ĠEarth": 6444, "Ġshoulders": 6445, "Ġremembering": 6446, "Ġsqueal": 6447, "Unfortunately": 6448, "An": 6449, "Our": 6450, "Ġdaisies": 6451, "ĠPo": 6452, "Ġbravery": 6453, "ĠSnap": 6454, "laire": 6455, "Great": 6456, "Ġthro": 6457, "Ġbehaving": 6458, "Ġpens": 6459, "Joey": 6460, "ĠTwo": 6461, "Ġimproved": 6462, "cuse": 6463, "Ġthroat": 6464, "Polly": 6465, "go": 6466, "Ġuntie": 6467, "Ġbars": 6468, "anging": 6469, "Ġspeaking": 6470, "ĠStay": 6471, "ĠCuddles": 6472, "Milly": 6473, "ky": 6474, "acob": 6475, "Ġdived": 6476, "Ġrockets": 6477, "Ġclowns": 6478, "Ġblooming": 6479, "Ġwarnings": 6480, "ĠWhist": 6481, "undred": 6482, "Ġarrows": 6483, "Ġcobwebs": 6484, "Sandy": 6485, "eed": 6486, "sm": 6487, "Ġscales": 6488, "Ġgreet": 6489, "bbie": 6490, "Excuse": 6491, "ĠSusan": 6492, "Ġrisk": 6493, "ĠWoo": 6494, "ĠEnjoy": 6495, "ĠKids": 6496, "Ġstays": 6497, "ĠRich": 6498, "Ġpraying": 6499, "Chirpy": 6500, "Charlie": 6501, "Ġfroze": 6502, "Ġnoses": 6503, "Ġscarves": 6504, "Ġscratches": 6505, "Mike": 6506, "ĠMad": 6507, "ĠJones": 6508, "Ġreluctantly": 6509, "Ġwandering": 6510, "ĠFoxy": 6511, "Ġdirection": 6512, "ĠJeff": 6513, "Ġbarely": 6514, "Oops": 6515, "Ru": 6516, "Ġhundred": 6517, "ĠHippy": 6518, "cky": 6519, "though": 6520, "Ġsnowfl": 6521, "Ġbiting": 6522, "angled": 6523, "Ġavo": 6524, "Ġsuperheroes": 6525, "Run": 6526, "ĠBall": 6527, "ĠJilly": 6528, "Ġtractor": 6529, "Ġyells": 6530, "Ġbasement": 6531, "Ġgrowls": 6532, "...\"": 6533, "Ġcous": 6534, "Ġbadge": 6535, "Ġwritten": 6536, "Ġworkers": 6537, "Ġexplorers": 6538, "Ġentire": 6539, "Ġkicks": 6540, "Ġdrums": 6541, "Ġchoices": 6542, "ĠBuggy": 6543, "elia": 6544, "ults": 6545, "ĠFor": 6546, "ĠJessie": 6547, "Ġunf": 6548, "Ġcaused": 6549, "Ġdiscovering": 6550, "Ġleaning": 6551, "Yeah": 6552, "Ġunp": 6553, "ĠThose": 6554, "Ġcreating": 6555, "oline": 6556, "Ġrecording": 6557, "Buzz": 6558, "Ġrefreshed": 6559, "Days": 6560, "ĠMouse": 6561, "Ġchat": 6562, "Ġowners": 6563, "Ġpigeons": 6564, "Ġperformed": 6565, "ĠCopper": 6566, "int": 6567, "ĠTree": 6568, "Ġpec": 6569, "Ġknees": 6570, "ĠPr": 6571, "Ġjoked": 6572, "Ġlighter": 6573, "Ġdesp": 6574, "Ġwipes": 6575, "Ġpaddled": 6576, "Ġast": 6577, "Ġonions": 6578, "Ġwishing": 6579, "Shh": 6580, "ĠJessica": 6581, "Ġsatisfied": 6582, "coon": 6583, "ĠYes": 6584, "Ġyounger": 6585, "ĠMon": 6586, "ĠMel": 6587, "Ġsobbed": 6588, "Ġleast": 6589, "Ġchoo": 6590, "Ġuns": 6591, "Ġlibrarian": 6592, "Ġchuckled": 6593, "Henry": 6594, "cher": 6595, "Ġties": 6596, "itched": 6597, "sty": 6598, "ĠBop": 6599, "anta": 6600, "Ġpiggy": 6601, "ĠNina": 6602, "?'": 6603, "son": 6604, "Ġbumpy": 6605, "amb": 6606, "ĠDuck": 6607, "Ġraces": 6608, "Ġtickled": 6609, "Ġswans": 6610, "Ġtwirling": 6611, "rrr": 6612, "Roar": 6613, "Maggie": 6614, "ody": 6615, "oey": 6616, "Ġropes": 6617, "Ġknowled": 6618, "usted": 6619, "Ġhides": 6620, "ĠAnne": 6621, "Ġrelief": 6622, "Ġpaying": 6623, "Ġgroups": 6624, "Ġguessing": 6625, "Ġsquares": 6626, "Ġtriangles": 6627, "Ġjackets": 6628, "ĠPrincess": 6629, "Ġknowledge": 6630, "ho": 6631, "Ġrestored": 6632, "Ġdances": 6633, "Ġinsects": 6634, "ĠUnfortunately": 6635, "Ġcrowd": 6636, "Ġburst": 6637, "Ġintroduced": 6638, "Ġsolution": 6639, "Ġseven": 6640, "Ġscra": 6641, "izzie": 6642, "Ġcompletely": 6643, "Pe": 6644, "Sn": 6645, "tuce": 6646, "ĠSc": 6647, "ados": 6648, "Ġlettuce": 6649, "Ġblocking": 6650, "Ġslower": 6651, "Ġcovers": 6652, "uggles": 6653, "Ġitchy": 6654, "Ġnine": 6655, "ĠMix": 6656, "Ġscur": 6657, "Ġjobs": 6658, "ences": 6659, "Beep": 6660, "Ġsilent": 6661, "Ġprovided": 6662, "Ġpurr": 6663, "Ġchefs": 6664, "Ġventured": 6665, "ĠQueen": 6666, "tle": 6667, "itely": 6668, "ĠLuke": 6669, "Ġskunk": 6670, "ĠGina": 6671, "Ġdoctors": 6672, "Ġentr": 6673, "Ġleading": 6674, "Ġtwinkling": 6675, "ĠMatt": 6676, "len": 6677, "Ġtapped": 6678, "ĠHenny": 6679, "Ġplenty": 6680, "Ġworries": 6681, "Ġexha": 6682, "Ġtoaster": 6683, "Ġtunnels": 6684, "Ġcheeks": 6685, "For": 6686, "etsy": 6687, "ĠWink": 6688, "Ġswords": 6689, "Ġmuscle": 6690, "Ġwears": 6691, "Ġseeker": 6692, "Ġinterested": 6693, "Ġcelebrating": 6694, "Ġrefle": 6695, "sequ": 6696, "indr": 6697, "Ġreason": 6698, "Ġclick": 6699, "ĠJay": 6700, "Ġvines": 6701, "aura": 6702, "coat": 6703, "Ġavocados": 6704, "ĠSophia": 6705, "Ġdarling": 6706, "ossible": 6707, "vin": 6708, "Ġhowever": 6709, "Ġconsequ": 6710, "ĠJenna": 6711, "Ġcamping": 6712, "Ġcuddly": 6713, "Ġtipto": 6714, "Ġpuppet": 6715, "Ġaccomplish": 6716, "Zoom": 6717, "fit": 6718, "oke": 6719, "Ġfreed": 6720, "ĠLena": 6721, "Those": 6722, "Ġneedles": 6723, "Ġraincoat": 6724, "airy": 6725, "Ġraindr": 6726, "ĠâĢĺ": 6727, "Follow": 6728, "Ġscurried": 6729, "band": 6730, "ĠAdam": 6731, "ĠRon": 6732, "Ġtires": 6733, "Ġcompetition": 6734, "Ġproperly": 6735, "Ġslammed": 6736, "Ġcautiously": 6737, "?\",": 6738, "ĠPup": 6739, "boat": 6740, "Ġmints": 6741, "Ġpartic": 6742, "Ġsalty": 6743, "Ġwraps": 6744, "ĠTwinkle": 6745, "Ġunpacked": 6746, "Out": 6747, "rink": 6748, "Ġoutfit": 6749, "ĠDot": 6750, "Ġgrabbing": 6751, "Ġimpossible": 6752, "Ġprincesses": 6753, "Ġspreading": 6754, "Ġpancakes": 6755, "Ġconsequences": 6756, "Teddy": 6757, "Ġmer": 6758, "Ġstarfish": 6759, "ept": 6760, "Ġbuses": 6761, "ĠSnuggles": 6762, "Ġbumps": 6763, "Ġsurface": 6764, "Ġthud": 6765, "Ġtravell": 6766, "Ġsway": 6767, "Ġbacked": 6768, "vers": 6769, "Ġalien": 6770, "Ġtwice": 6771, "Ġdollhouse": 6772, "Ġcubes": 6773, "Ġpecked": 6774, "Ġexhausted": 6775, "Big": 6776, "ĠJon": 6777, "abel": 6778, "Ġswept": 6779, "Ġhonked": 6780, "Listen": 6781, "Ġplayhouse": 6782, "rosty": 6783, "Ġforehead": 6784, "Ġripe": 6785, "Ġfigured": 6786, "Ġsewed": 6787, "Ġsibl": 6788, "ĠNothing": 6789, "Ġentrance": 6790, "Ġsiblings": 6791, "itches": 6792, "ĠSanta": 6793, "ammy": 6794, "Ġrotten": 6795, "Ġleap": 6796, "ilda": 6797, "ĠKatie": 6798, "Ġdeal": 6799, "Ġthrown": 6800, "Ġdarkness": 6801, "Ġbuzzed": 6802, "Ġdeserve": 6803, "Ġtangled": 6804, "Ġlamb": 6805, "Ġpins": 6806, "ĠLion": 6807, "Ġlosing": 6808, "Ġchanging": 6809, "Ġcolored": 6810, "Ġrainy": 6811, "Ġbows": 6812, "Ġparticular": 6813, "Danny": 6814, "Ġsense": 6815, "ĠTry": 6816, "Ġcash": 6817, "stick": 6818, "ĠBirthday": 6819, "ĠWoof": 6820, "Ġfever": 6821, "athy": 6822, "Ġforgets": 6823, "Ġrotting": 6824, "Ġstomped": 6825, "Ġflavor": 6826, "Ġsquealed": 6827, "Ġcousin": 6828, "Rose": 6829, "Ġstool": 6830, "Ġbehavi": 6831, "Ġdecorating": 6832, "Ġstudents": 6833, "iar": 6834, "Ġwow": 6835, "Ġstung": 6836, "ĠLaser": 6837, "ĠMoon": 6838, "Ġmeals": 6839, "Ġflames": 6840, "Ġfeast": 6841, "Ġbudge": 6842, "Ġmonth": 6843, "ĠOl": 6844, "Ġsigned": 6845, "Ġhesitated": 6846, "Tweet": 6847, "Ġhus": 6848, "iti": 6849, "ouch": 6850, "Ġstain": 6851, "Ġkings": 6852, "Ġbuying": 6853, "Ġmushrooms": 6854, "Ġfilms": 6855, "Ġsymbols": 6856, "Ġincreased": 6857, "Ġsuffering": 6858, "Ġpuppies": 6859, "Harry": 6860, "Ġopp": 6861, "ĠDara": 6862, "Ġhider": 6863, "Ġtricky": 6864, "However": 6865, "ĠGoodbye": 6866, "Ġpupils": 6867, "Luckily": 6868, "uzz": 6869, "Ġicing": 6870, "Ġgri": 6871, "ĠLarry": 6872, "Ġtramp": 6873, "Ġprinting": 6874, "Ġslowed": 6875, "ĠYesterday": 6876, "Ġtwinkle": 6877, "Ġdentist": 6878, "May": 6879, "ĠListen": 6880, "Ġearn": 6881, "Ġbodies": 6882, "agic": 6883, "ĠPam": 6884, "ĠRain": 6885, "ĠDodo": 6886, "Ġgrows": 6887, "Ġshops": 6888, "iggie": 6889, "Ġheavier": 6890, "Ġhusband": 6891, "Whee": 6892, "no": 6893, "ps": 6894, "ĠBetsy": 6895, "ĠMira": 6896, "Ġfact": 6897, "ĠEl": 6898, "ctions": 6899, "ĠPatch": 6900, "Ġcreations": 6901, "brush": 6902, "Ġfeeding": 6903, "Ġnecklaces": 6904, "Ġdetermination": 6905, "Ġseparated": 6906, "Ġwobb": 6907, "Ġinstrum": 6908, "Ġannoy": 6909, "Ġtrampoline": 6910, "Ġmater": 6911, "Ġhandful": 6912, "Ġwaiter": 6913, "Ġcounts": 6914, "Ġshaped": 6915, "Ġmatters": 6916, "Ġtwisting": 6917, "Ġdesigned": 6918, "Ġmaterial": 6919, "Alex": 6920, "but": 6921, "zie": 6922, "Ġplayers": 6923, "Ġage": 6924, "Ġfins": 6925, "Ġnests": 6926, "Ġlifts": 6927, "Ġsniffs": 6928, "Ġlungs": 6929, "rig": 6930, "ĠTara": 6931, "elle": 6932, "ĠFrosty": 6933, "Ġsnat": 6934, "ĠTrust": 6935, "Ġfigures": 6936, "Ġrewarded": 6937, "Ġgrocer": 6938, "ĠSparky": 6939, "ĠBarky": 6940, "ude": 6941, "Ġstem": 6942, "using": 6943, "ushing": 6944, "Ġstolen": 6945, "Ġtalks": 6946, "Ġsweets": 6947, "Ġvalued": 6948, "Ġloops": 6949, "ĠMilo": 6950, "Ġbackward": 6951, "ustom": 6952, "Ġcelebration": 6953, "Ġfuzzy": 6954, "Ġavoid": 6955, "Am": 6956, "Lilly": 6957, "Pipp": 6958, "pen": 6959, "Ġden": 6960, "ĠHannah": 6961, "Ġuntied": 6962, "Ġbaths": 6963, "Ġwiping": 6964, "Ġlifting": 6965, "Ġsuitcase": 6966, "ĠChew": 6967, "Dan": 6968, "Jerry": 6969, "uppy": 6970, "Ġcustom": 6971, "ives": 6972, "Ġdancers": 6973, "ĠOther": 6974, "ĠNana": 6975, "Ġcalmed": 6976, "Ġsunflowers": 6977, "Ġencourag": 6978, "Sophie": 6979, "Bill": 6980, "Ġgle": 6981, "ingo": 6982, "rious": 6983, "iles": 6984, "Ġcuriously": 6985, "Ġpeeking": 6986, "ĠWhistle": 6987, "Ġreflection": 6988, "Under": 6989, "bric": 6990, "eal": 6991, "imon": 6992, "lets": 6993, "Ġfabric": 6994, "Ġflapping": 6995, "eese": 6996, "ĠOnly": 6997, "Ġpreparing": 6998, "Ġunsure": 6999, "hi": 7000, "prin": 7001, "Ġcott": 7002, "endy": 7003, "Ġrust": 7004, "step": 7005, "Ġnect": 7006, "Ġglued": 7007, "ĠWithout": 7008, "Ġgenie": 7009, "Ġpresses": 7010, "Ġborrowed": 7011, "ĠRollie": 7012, "Ġburrow": 7013, "Ġbeginning": 7014, "Ġnectar": 7015, "Lulu": 7016, "ne": 7017, "vroom": 7018, "Ġsomebody": 7019, "Ġsinger": 7020, "Ġmarked": 7021, "ĠBloom": 7022, "Ġimages": 7023, "Ġguests": 7024, "Ġclues": 7025, "ĠDee": 7026, "âĢĶ": 7027, "Ġconn": 7028, "Ġsailboat": 7029, "Ġcrackers": 7030, "Ġscrews": 7031, "Ġforgiving": 7032, "Ġcashier": 7033, "rigued": 7034, "Nina": 7035, "Sunny": 7036, "wk": 7037, "Ġty": 7038, "Ġaff": 7039, "Ġbak": 7040, "Ġgeese": 7041, "Ġranger": 7042, "abby": 7043, "ĠClaire": 7044, "Ġdropping": 7045, "Ġcorners": 7046, "Ġscooters": 7047, "Ġlending": 7048, "Ġdirections": 7049, "Ġraindrops": 7050, "ĠSleep": 7051, "Ġspat": 7052, "ĠCara": 7053, "Ġplanning": 7054, "Ġactivities": 7055, "Ġgroceries": 7056, "Get": 7057, "igning": 7058, "ters": 7059, "retch": 7060, "ĠKayla": 7061, "Ġhearing": 7062, "Ġache": 7063, "Ġrepa": 7064, "Ġtouches": 7065, "Ġbracelets": 7066, "ĠRudy": 7067, "Ġsewing": 7068, "Ġtossed": 7069, "Ġchop": 7070, "Ġtighter": 7071, "Ġzebras": 7072, "Mrs": 7073, "Ġcenter": 7074, "cl": 7075, "cope": 7076, "Ġrusty": 7077, "ĠMic": 7078, "Ġstrongest": 7079, "Ġadult": 7080, "Ġwarmer": 7081, "Ġsailors": 7082, "Ġcushions": 7083, "Ġtiptoed": 7084, "Co": 7085, "ĠTake": 7086, "immer": 7087, "iding": 7088, "Ġdod": 7089, "ĠCr": 7090, "Ġsteer": 7091, "ivity": 7092, "Ġregretted": 7093, "Ġmesmer": 7094, "Millie": 7095, "Ġnood": 7096, "ĠLaura": 7097, "itted": 7098, "Ġswir": 7099, "Ġposter": 7100, "ĠDoctor": 7101, "Ġrobber": 7102, "Ġsparks": 7103, "Ġindeed": 7104, "Ġquarreled": 7105, "ĠTweetie": 7106, "Ġincluding": 7107, "Ġsuffered": 7108, "Clara": 7109, "Ġaccomplishment": 7110, "Ġrepaired": 7111, "Ġsan": 7112, "igers": 7113, "Ġtreehouse": 7114, "ĠEle": 7115, "ĠEls": 7116, "Ġfires": 7117, "ĠAsh": 7118, "Ġqueens": 7119, "Ġcreativity": 7120, "Ġwrapping": 7121, "Ġmarker": 7122, "ĠNick": 7123, "Ġwhispers": 7124, "Ġsurfing": 7125, "Ġblinking": 7126, "Quick": 7127, "Ġtiss": 7128, "ĠTurtle": 7129, "Ġcoop": 7130, "Ġhawk": 7131, "Ġbeam": 7132, "Ġrushing": 7133, "ĠLinda": 7134, "ĠJacob": 7135, "iece": 7136, "Ġblown": 7137, "arac": 7138, "ĠZoey": 7139, "Ġpassen": 7140, "Ġrecipe": 7141, "Ġforgetting": 7142, "Ġmailed": 7143, "ĠSadly": 7144, "Ġastron": 7145, "Ġsank": 7146, "Ġpuff": 7147, "ĠHold": 7148, "ĠBiggie": 7149, "illed": 7150, "Ġscored": 7151, "emma": 7152, "Ġcowb": 7153, "armer": 7154, "Ġimagining": 7155, "Ġlaying": 7156, "Ġleads": 7157, "Ġlabels": 7158, "Ġnightmares": 7159, "ibbit": 7160, "Ġastronaut": 7161, "Betty": 7162, "Pat": 7163, "yes": 7164, "Ġaimed": 7165, "ĠTiti": 7166, "lle": 7167, "river": 7168, "ĠCathy": 7169, "Ġrobots": 7170, "ĠBeaky": 7171, "Ġspikes": 7172, "Baby": 7173, "jo": 7174, "Ġtying": 7175, "Ġflipped": 7176, "Ġblocked": 7177, "ishy": 7178, "Ġcharac": 7179, "Ġfart": 7180, "Ġangels": 7181, "ĠSnowman": 7182, "Ġobjects": 7183, "Ġpassports": 7184, "Ġsprinkled": 7185, "Ġstroked": 7186, "Ġfirefighters": 7187, "Ruby": 7188, "Ġsnatched": 7189, "Ġencouraging": 7190, "Ġtissue": 7191, "uzzy": 7192, "Ġlower": 7193, "ans": 7194, "Ġrising": 7195, "Ġshoo": 7196, "Ġthoughts": 7197, "ĠCindy": 7198, "Ġafterwards": 7199, "Ġdrawn": 7200, "Ġbelts": 7201, "Ġguide": 7202, "Ġbells": 7203, "Ġsource": 7204, "ĠYet": 7205, "ibi": 7206, "Ġsnowflakes": 7207, "Ġwobbly": 7208, "Ġbakery": 7209, "uess": 7210, "Ġdet": 7211, "ĠLizzie": 7212, "ĠAbbie": 7213, "Ġroars": 7214, "Ġsurprising": 7215, "Ġhotter": 7216, "Ġshrinking": 7217, "Ġwakes": 7218, "Ġcamel": 7219, "Ġzipping": 7220, "Ġrecommended": 7221, "Ġpouted": 7222, "cited": 7223, "fall": 7224, "uing": 7225, "erate": 7226, "Ġsale": 7227, "atur": 7228, "ades": 7229, "ĠWo": 7230, "Ġplans": 7231, "iversity": 7232, "Ġhopeful": 7233, "Ġfirefly": 7234, "Ġdamage": 7235, "Ġseasons": 7236, "laying": 7237, "aven": 7238, "itude": 7239, "Ġrather": 7240, "iley": 7241, "Ġovercome": 7242, "Ġrains": 7243, "angle": 7244, "Ġstreets": 7245, "Ġmelons": 7246, "Ġtalented": 7247, "yan": 7248, "Ġspins": 7249, "Ġpaths": 7250, "Ġsqueak": 7251, "ĠUp": 7252, "Ġpleasure": 7253, "Ġtrembled": 7254, "Ġfluttered": 7255, "ĠChrist": 7256, "Ellie": 7257, "Ġtigers": 7258, "Ġmate": 7259, "Ġplain": 7260, "Ġbackwards": 7261, "iona": 7262, "Ġcolder": 7263, "ĠThanks": 7264, "ĠPeanut": 7265, "Ġsuits": 7266, "Ġdelivering": 7267, "weed": 7268, "Ġshovels": 7269, "Ġwidened": 7270, "yond": 7271, "Ġbeyond": 7272, "Ġyelp": 7273, "athan": 7274, "Ġseaweed": 7275, "ĠBlinky": 7276, "Ġvanilla": 7277, "Ġmerma": 7278, "Ġfarthest": 7279, "Jul": 7280, "ael": 7281, "da": 7282, "the": 7283, "Ġdip": 7284, "Ġmaker": 7285, "Ġgross": 7286, "Ġyum": 7287, "Ġshown": 7288, "cho": 7289, "Ġaside": 7290, "Ġchip": 7291, "ĠRuff": 7292, "Ġfits": 7293, "ments": 7294, "Ġfrowning": 7295, "Ġknots": 7296, "Frank": 7297, "Dolly": 7298, "mas": 7299, "llen": 7300, "ĠWise": 7301, "Ġwatering": 7302, "Ġamong": 7303, "Ġstopping": 7304, "ĠSparkle": 7305, "Ġstroll": 7306, "Spike": 7307, "rat": 7308, "Ġnotes": 7309, "ĠBones": 7310, "Ġecho": 7311, "ĠFairy": 7312, "ĠKit": 7313, "ĠPuppy": 7314, "ertain": 7315, "Ġgracefully": 7316, "Ġraccoon": 7317, "Ġseconds": 7318, "Ġslices": 7319, "ĠAmelia": 7320, "Ġachieved": 7321, "ummies": 7322, "ĠWooly": 7323, "Ġglee": 7324, "prints": 7325, "Ab": 7326, "bird": 7327, "orman": 7328, "Ġperforman": 7329, "Ġsecure": 7330, "Ġrivers": 7331, "Ġbandages": 7332, "Ġdrivers": 7333, "Ġhaircuts": 7334, "Ġflavors": 7335, "ĠGranny": 7336, "Ġfirmly": 7337, "ĠOliver": 7338, "Ġperformance": 7339, "Ġtipped": 7340, "Ġtodd": 7341, "Ġcoup": 7342, "onna": 7343, "ĠSimon": 7344, "Ġwept": 7345, "Ġsped": 7346, "obody": 7347, "ĠJump": 7348, "ĠBubb": 7349, "Ġgiggles": 7350, "ĠAlong": 7351, "Ġsending": 7352, "Ġsurfboard": 7353, "Always": 7354, "Ġpinching": 7355, "ĠMikey": 7356, "Take": 7357, "cused": 7358, "hog": 7359, "Ġtummies": 7360, "eds": 7361, "Ġnibb": 7362, "ĠFarmer": 7363, "Ġmagician": 7364, "Ġsingle": 7365, "Ġpops": 7366, "Ġsupported": 7367, "Ġperforming": 7368, "Ġmagnets": 7369, "Ġhedgehog": 7370, "Ġcountryside": 7371, "Ġnapped": 7372, "ĠSoft": 7373, "Ġstitches": 7374, "pecting": 7375, "Ġspits": 7376, "Ġnoodles": 7377, "Guess": 7378, "Jump": 7379, "Zip": 7380, "Ġdie": 7381, "Ġmoo": 7382, "aren": 7383, "asty": 7384, "Ġends": 7385, "Ġgardener": 7386, "Ġbeloved": 7387, "Ġmarkers": 7388, "Ġexpress": 7389, "Ġtesting": 7390, "Ġhallway": 7391, "Ġslips": 7392, "Quack": 7393, "Ġwobble": 7394, "ĠElephant": 7395, "'.\"": 7396, "Bear": 7397, "ggy": 7398, "rup": 7399, "Ġais": 7400, "Ġrumble": 7401, "Ġeverybody": 7402, "ddie": 7403, "Ġchos": 7404, "Ġcleaner": 7405, "umbling": 7406, "Ġstroke": 7407, "Ġchosen": 7408, "Ribbit": 7409, "hive": 7410, "Ġcrew": 7411, "Ġev": 7412, "ently": 7413, "ongrat": 7414, "ĠWendy": 7415, "Ġwilling": 7416, "Ġintrigued": 7417, "Ġsprang": 7418, "Ġlipstick": 7419, "Ġpedaled": 7420, "ĠSuzie": 7421, "Ġforgiven": 7422, "Dear": 7423, "Zoomy": 7424, "Ġhour": 7425, "oring": 7426, "Ġbru": 7427, "ĠFire": 7428, "Ġfocused": 7429, "Ġcreams": 7430, "Ġlessons": 7431, "ounce": 7432, "Ġbeehive": 7433, "ĠEmmy": 7434, "ĠChirp": 7435, "Ġstands": 7436, "Ġbathing": 7437, "Ġtested": 7438, "Ġhealth": 7439, "Ġspeeding": 7440, "Ġdisturbing": 7441, "Ġrepeating": 7442, "ĠMissy": 7443, "Ġtubes": 7444, "ĠGrumpy": 7445, "ĠChristmas": 7446, "Like": 7447, "Vroom": 7448, "Ġturt": 7449, "Ġaud": 7450, "Ġwadd": 7451, "onies": 7452, "Ġgonna": 7453, "ĠSl": 7454, "Ġliqu": 7455, "ulp": 7456, "Ġflas": 7457, "Ġtearing": 7458, "ĠZee": 7459, "ichael": 7460, "Ġhoriz": 7461, "Ġneighbours": 7462, "Ġfrowns": 7463, "Ġenthusiasm": 7464, "Ġoysters": 7465, "Ġreversed": 7466, "Ġswimsuit": 7467, "Ġthorns": 7468, "Ġgreeted": 7469, "Ġcouple": 7470, "ongratul": 7471, "Ġturtles": 7472, "Mira": 7473, "ĠHoney": 7474, "child": 7475, "Ġdef": 7476, "ĠRe": 7477, "Ġbanged": 7478, "Ġsqueezing": 7479, "Ġsheets": 7480, "Ġencount": 7481, "ĠCrab": 7482, "Ġliquid": 7483, "Ġhorizon": 7484, "Mine": 7485, "fted": 7486, "mates": 7487, "ĠSil": 7488, "ĠWilly": 7489, "Ġunw": 7490, "Ġpeck": 7491, "Ġdrawers": 7492, "Ġunderstands": 7493, "ĠStretch": 7494, "Ġyielded": 7495, "ĠIsn": 7496, "Ġgrip": 7497, "Boys": 7498, "Car": 7499, "Very": 7500, "ca": 7501, "Ġdaring": 7502, "Ġmast": 7503, "ĠBibi": 7504, "ecca": 7505, "Ġwaterfall": 7506, "Ġtweet": 7507, "Ġsweetest": 7508, "Ġfills": 7509, "!âĢĿ.": 7510, "Ġhoops": 7511, "Freddy": 7512, "etchup": 7513, "Ġfreedom": 7514, "Moo": 7515, "Penny": 7516, "Ġnuzz": 7517, "ility": 7518, "ading": 7519, "ellow": 7520, "Ġsofter": 7521, "ĠRel": 7522, "Ġscrewd": 7523, "Ġwiggly": 7524, "Ġinstruments": 7525, "Ġmesmerized": 7526, "Wake": 7527, "Zara": 7528, "ĠMan": 7529, "oga": 7530, "ĠNear": 7531, "Ġpays": 7532, "Ġsports": 7533, "ĠJulia": 7534, "ĠChess": 7535, "ĠJanie": 7536, "ĠMixy": 7537, "Ġaudience": 7538, "Bessie": 7539, "father": 7540, "vered": 7541, "Ġlies": 7542, "ĠFuzzy": 7543, "ĠJune": 7544, "Ġswitched": 7545, "Ġheading": 7546, "Ġjoining": 7547, "Ġdesigns": 7548, "Ġmosquitoes": 7549, "Ġpurrs": 7550, "Ġtwinkled": 7551, "Ġscraped": 7552, "Bang": 7553, "Kiki": 7554, "Put": 7555, "ĠTia": 7556, "Ġwasting": 7557, "allowed": 7558, "Ġswallowed": 7559, "Ġlongest": 7560, "Ġmarsh": 7561, "Ġpolitely": 7562, "Ġsails": 7563, "Ste": 7564, "Ġsneezes": 7565, "Ġsharks": 7566, "Ġreminds": 7567, "ĠRobo": 7568, "Ġgears": 7569, "Ġmermaid": 7570, "Hurry": 7571, "Kim": 7572, "aver": 7573, "Ġtil": 7574, "Ġcoug": 7575, "ats": 7576, "Ġknives": 7577, "Ġspice": 7578, "ooky": 7579, "Ġchanges": 7580, "Ġstored": 7581, "ĠKip": 7582, "issa": 7583, "Ġsandy": 7584, "Ġgrassy": 7585, "Ġworrying": 7586, "Ġrespected": 7587, "ĠNice": 7588, "awn": 7589, "Ġhealing": 7590, "Ġspills": 7591, "Ġgrandchild": 7592, "Ġ10": 7593, "Ġtoddler": 7594, "Adam": 7595, "Su": 7596, "Ġmerry": 7597, "omp": 7598, "llas": 7599, "Ġund": 7600, "Ġketchup": 7601, "Ġreass": 7602, "Ġspies": 7603, "Ġflip": 7604, "ĠEx": 7605, "Ġexplo": 7606, "Ġwrink": 7607, "Ġarr": 7608, "Ġpaintbrush": 7609, "Ġfootprints": 7610, "Ġpours": 7611, "Ġumbrellas": 7612, "ĠShark": 7613, "Ġspells": 7614, "Ġpostman": 7615, "ĠJudy": 7616, "Bow": 7617, "fus": 7618, "lo": 7619, "Ġponies": 7620, "Ġgobb": 7621, "ighting": 7622, "ousy": 7623, "Ġcreamy": 7624, "Ġbits": 7625, "ĠToot": 7626, "Ġcrowns": 7627, "Ġcoloured": 7628, "Ġscrewdriver": 7629, "?!\"": 7630, "Aunt": 7631, "Kate": 7632, "Liz": 7633, "parent": 7634, "isions": 7635, "Ġnur": 7636, "ĠCow": 7637, "ĠPin": 7638, "Ġcupc": 7639, "Ġcrossing": 7640, "Ġhangers": 7641, "Alright": 7642, "Ġslipping": 7643, "ĠBiggy": 7644, "Ġbreathed": 7645, "ĠUniversity": 7646, "Ġscolds": 7647, "Leave": 7648, "Ġrespond": 7649, "Ġcrashing": 7650, "mallow": 7651, "urious": 7652, "Ġsill": 7653, "veral": 7654, "Ġstacked": 7655, "ĠMa": 7656, "esp": 7657, "Ġseveral": 7658, "Ġpanicked": 7659, "Ġnervously": 7660, "Ġhesitant": 7661, "bage": 7662, "ean": 7663, "Ġ2": 7664, "ition": 7665, "inger": 7666, "Ġflight": 7667, "Ġprove": 7668, "Ġamount": 7669, "Ġdollars": 7670, "Ġbelieving": 7671, "Ġspoonful": 7672, "Ġwisely": 7673, "Ġrelaxing": 7674, "Ġbicycles": 7675, "ĠLouise": 7676, "immering": 7677, "Ġevil": 7678, "Ġmarshmallow": 7679, "crow": 7680, "Ġbully": 7681, "ancy": 7682, "order": 7683, "Ġhiss": 7684, "Ġworn": 7685, "dding": 7686, "Ġcoloring": 7687, "Ġhandsome": 7688, "Ġdripping": 7689, "Ġresisted": 7690, "Ġbaskets": 7691, "Ġterrified": 7692, "Ġignoring": 7693, "ĠRobbie": 7694, "Ġlent": 7695, "Ġcor": 7696, "Ġmaster": 7697, "ĠHug": 7698, "ĠBad": 7699, "ĠMousy": 7700, "Ġaren": 7701, "Ġdecisions": 7702, "Ġfocus": 7703, "Ġcloudy": 7704, "ĠNobody": 7705, "Ġsolving": 7706, "Ġships": 7707, "Ġnewspapers": 7708, "ĠMaddie": 7709, "--": 7710, "David": 7711, "Open": 7712, "iment": 7713, "oni": 7714, "unched": 7715, "ĠMabel": 7716, "Ġshady": 7717, "Ġsoaking": 7718, "Ġseals": 7719, "retty": 7720, "ĠRyan": 7721, "acy": 7722, "Ġsmelling": 7723, "Ġserving": 7724, "Ġseller": 7725, "Ġweekend": 7726, "Ġsnaps": 7727, "Ġartist": 7728, "years": 7729, "Ġstudent": 7730, "Ġencouragement": 7731, "ĠAbi": 7732, "Ġwider": 7733, "Ġrisks": 7734, "Jamie": 7735, "Sad": 7736, "line": 7737, "onnie": 7738, "Ġgest": 7739, "Ġneare": 7740, "Ġlace": 7741, "Ġsquishy": 7742, "Ġadults": 7743, "ĠTodd": 7744, "Ġelbow": 7745, "Ġzooms": 7746, "Ġsniffing": 7747, "Ġcells": 7748, "Chloe": 7749, "ĠâĢĶ": 7750, "Ġsurroundings": 7751, "while": 7752, "Ġwounds": 7753, "Ġsweaty": 7754, "',": 7755, "ivery": 7756, "Ġhoo": 7757, "Ġmiles": 7758, "Ġloses": 7759, "ably": 7760, "Ġswap": 7761, "Ġcracks": 7762, "Ġdisob": 7763, "Goodnight": 7764, "Ġminded": 7765, "Ġteams": 7766, "Ġaddress": 7767, "Ġaeroplanes": 7768, "Ġmagazines": 7769, "Ġdelayed": 7770, "Ġfamiliar": 7771, "Pippin": 7772, "Ġcharacters": 7773, "Ġencountered": 7774, "Even": 7775, "Jazz": 7776, "Keep": 7777, "een": 7778, "fire": 7779, "Ġsy": 7780, "ĠLoop": 7781, "Ġforce": 7782, "ĠWell": 7783, "Ġexce": 7784, "ears": 7785, "Ġstorekeeper": 7786, "Ġaction": 7787, "Ġtrusting": 7788, "ĠStella": 7789, "Ġscarecrow": 7790, "Ġgrandparent": 7791, "Ġlicking": 7792, "Buzzy": 7793, "Ġmaterials": 7794, "Ġwaddled": 7795, "ĠSilver": 7796, "espite": 7797, "zoom": 7798, "ĠSal": 7799, "anwhile": 7800, "Ġrowed": 7801, "ĠLuckily": 7802, "ĠMint": 7803, "alph": 7804, "Ġflown": 7805, "ĠDina": 7806, "ĠOt": 7807, "Ġdiscussed": 7808, "Ġbreathing": 7809, "Ġburnt": 7810, "Ġbehavior": 7811, "Coco": 7812, "Slow": 7813, "Try": 7814, "Ġease": 7815, "chy": 7816, "Ġnodding": 7817, "Thomas": 7818, "Ġtoward": 7819, "Momma": 7820, "ĠPen": 7821, "Ġbravest": 7822, "Ġdrown": 7823, "ounced": 7824, "Ġmagnif": 7825, "ĠMaya": 7826, "Ġfirefighter": 7827, "Mat": 7828, "Ġbam": 7829, "ĠToys": 7830, "Ġmunch": 7831, "ening": 7832, "Ġswimmer": 7833, "Ġdrifted": 7834, "Ġcovering": 7835, "Ġpeacefully": 7836, "Ġtemper": 7837, "Ġpermitted": 7838, "ĠYummy": 7839, "Ġbothering": 7840, "Uncle": 7841, "Snow": 7842, "Ġmatey": 7843, "Ġunwra": 7844, "Mo": 7845, "Ġbitten": 7846, "Ġpuck": 7847, "ofia": 7848, "Ġinches": 7849, "ĠMina": 7850, "Ġmanag": 7851, "Ġhanding": 7852, "romise": 7853, "Ġsquaw": 7854, "Ġpuzzled": 7855, "Ġadds": 7856, "Ġrats": 7857, "Ġlowered": 7858, "Ġerase": 7859, "Ġgrandson": 7860, "ĠPatty": 7861, "ĠPrince": 7862, "Ġpassengers": 7863, "Carl": 7864, "iel": 7865, "Ġwaking": 7866, "orter": 7867, "Ġinsp": 7868, "ppies": 7869, "ĠIzzy": 7870, "ntil": 7871, "Ġwhales": 7872, "rac": 7873, "Ġlapt": 7874, "Ġchar": 7875, "Ġcharge": 7876, "Ġcheers": 7877, "Ġdelivery": 7878, "Ġantic": 7879, "Ġplanting": 7880, "Josh": 7881, "Ġhumming": 7882, "ĠShow": 7883, "Ġbeeped": 7884, "ĠDavey": 7885, "Ġgazing": 7886, "Ġrustling": 7887, "Binky": 7888, "udy": 7889, "vant": 7890, "hel": 7891, "Ġsou": 7892, "rey": 7893, "rie": 7894, "Ġonward": 7895, "Ġelf": 7896, "urrender": 7897, "Ġscient": 7898, "ĠFighting": 7899, "Ġblast": 7900, "Ġslither": 7901, "Ġdonkey": 7902, "ĠHerb": 7903, "Ġdears": 7904, "Ġtreated": 7905, "Ġprick": 7906, "Ġprayers": 7907, "Ġcampfire": 7908, "Ġstyles": 7909, "ĠAmber": 7910, "Birdy": 7911, "Ġpeeled": 7912, "Ġgesture": 7913, "Ġbamboo": 7914, "Ġscientist": 7915, "Rock": 7916, "Sw": 7917, "cc": 7918, "Ġtar": 7919, "Ġgap": 7920, "atty": 7921, "rier": 7922, "ĠEddie": 7923, "ĠCut": 7924, "ails": 7925, "Ġjoins": 7926, "Ġpurpose": 7927, "Ġcausing": 7928, "Ġfootstep": 7929, "Ġfleas": 7930, "Ġsweep": 7931, "Ġhumans": 7932, "Ġsimply": 7933, "Ġmeows": 7934, "ĠAmanda": 7935, "ĠFishy": 7936, "Ġtravelled": 7937, "Ġmonths": 7938, "Ġastronauts": 7939, "Ġfootsteps": 7940, "Too": 7941, "fly": 7942, "rect": 7943, "orking": 7944, "Ġwithin": 7945, "ĠBra": 7946, "ĠMake": 7947, "Ġocc": 7948, "Ġscen": 7949, "ĠFiona": 7950, "beep": 7951, "ĠJackie": 7952, "Ġexplorer": 7953, "ĠOkay": 7954, "Instead": 7955, "Ġresults": 7956, "Ġkittens": 7957, "ĠNurse": 7958, "Ġtaped": 7959, "Ġsuggestion": 7960, "Two": 7961, "ĠMatilda": 7962, "Maria": 7963, "ĠPoor": 7964, "iam": 7965, "vy": 7966, "Ġmood": 7967, "Ġheight": 7968, "Ġinj": 7969, "Ġanger": 7970, "Ġmanners": 7971, "Which": 7972, "Ġsnuck": 7973, "Ġsquir": 7974, "Ġfloors": 7975, "Ġquieter": 7976, "ebecca": 7977, "Behind": 7978, "Ġexplains": 7979, "attered": 7980, "ĠShare": 7981, "Ġotters": 7982, "Ġfloats": 7983, "ĠYellow": 7984, "ĠFlutter": 7985, "Ġaisle": 7986, "Ġgobbled": 7987, "Ġlaptop": 7988, "Hannah": 7989, "Olive": 7990, "five": 7991, "Ġdump": 7992, "Ġgoo": 7993, "stalk": 7994, "ĠBingo": 7995, "ĠMin": 7996, "Ġscamp": 7997, "opes": 7998, "Ġcheated": 7999}